{"!": 0, "\"": 1, "#": 2, "$": 3, "%": 4, "&": 5, "'": 6, "(": 7, ")": 8, "*": 9, "+": 10, ",": 11, "-": 12, ".": 13, "/": 14, "0": 15, "1": 16, "2": 17, "3": 18, "4": 19, "5": 20, "6": 21, "7": 22, "8": 23, "9": 24, ":": 25, ";": 26, "<": 27, "=": 28, ">": 29, "?": 30, "@": 31, "A": 32, "B": 33, "C": 34, "D": 35, "E": 36, "F": 37, "G": 38, "H": 39, "I": 40, "J": 41, "K": 42, "L": 43, "M": 44, "N": 45, "O": 46, "P": 47, "Q": 48, "R": 49, "S": 50, "T": 51, "U": 52, "V": 53, "W": 54, "X": 55, "Y": 56, "Z": 57, "[": 58, "\\": 59, "]": 60, "^": 61, "_": 62, "`": 63, "a": 64, "b": 65, "c": 66, "d": 67, "e": 68, "f": 69, "g": 70, "h": 71, "i": 72, "j": 73, "k": 74, "l": 75, "m": 76, "n": 77, "o": 78, "p": 79, "q": 80, "r": 81, "s": 82, "t": 83, "u": 84, "v": 85, "w": 86, "x": 87, "y": 88, "z": 89, "{": 90, "|": 91, "}": 92, "~": 93, "\u00a1": 94, "\u00a2": 95, "\u00a3": 96, "\u00a4": 97, "\u00a5": 98, "\u00a6": 99, "\u00a7": 100, "\u00a8": 101, "\u00a9": 102, "\u00aa": 103, "\u00ab": 104, "\u00ac": 105, "\u00ae": 106, "\u00af": 107, "\u00b0": 108, "\u00b1": 109, "\u00b2": 110, "\u00b3": 111, "\u00b4": 112, "\u00b5": 113, "\u00b6": 114, "\u00b7": 115, "\u00b8": 116, "\u00b9": 117, "\u00ba": 118, "\u00bb": 119, "\u00bc": 120, "\u00bd": 121, "\u00be": 122, "\u00bf": 123, "\u00c0": 124, "\u00c1": 125, "\u00c2": 126, "\u00c3": 127, "\u00c4": 128, "\u00c5": 129, "\u00c6": 130, "\u00c7": 131, "\u00c8": 132, "\u00c9": 133, "\u00ca": 134, "\u00cb": 135, "\u00cc": 136, "\u00cd": 137, "\u00ce": 138, "\u00cf": 139, "\u00d0": 140, "\u00d1": 141, "\u00d2": 142, "\u00d3": 143, "\u00d4": 144, "\u00d5": 145, "\u00d6": 146, "\u00d7": 147, "\u00d8": 148, "\u00d9": 149, "\u00da": 150, "\u00db": 151, "\u00dc": 152, "\u00dd": 153, "\u00de": 154, "\u00df": 155, "\u00e0": 156, "\u00e1": 157, "\u00e2": 158, "\u00e3": 159, "\u00e4": 160, "\u00e5": 161, "\u00e6": 162, "\u00e7": 163, "\u00e8": 164, "\u00e9": 165, "\u00ea": 166, "\u00eb": 167, "\u00ec": 168, "\u00ed": 169, "\u00ee": 170, "\u00ef": 171, "\u00f0": 172, "\u00f1": 173, "\u00f2": 174, "\u00f3": 175, "\u00f4": 176, "\u00f5": 177, "\u00f6": 178, "\u00f7": 179, "\u00f8": 180, "\u00f9": 181, "\u00fa": 182, "\u00fb": 183, "\u00fc": 184, "\u00fd": 185, "\u00fe": 186, "\u00ff": 187, "\u0100": 188, "\u0101": 189, "\u0102": 190, "\u0103": 191, "\u0104": 192, "\u0105": 193, "\u0106": 194, "\u0107": 195, "\u0108": 196, "\u0109": 197, "\u010a": 198, "\u010b": 199, "\u010c": 200, "\u010d": 201, "\u010e": 202, "\u010f": 203, "\u0110": 204, "\u0111": 205, "\u0112": 206, "\u0113": 207, "\u0114": 208, "\u0115": 209, "\u0116": 210, "\u0117": 211, "\u0118": 212, "\u0119": 213, "\u011a": 214, "\u011b": 215, "\u011c": 216, "\u011d": 217, "\u011e": 218, "\u011f": 219, "\u0120": 220, "\u0121": 221, "\u0122": 222, "\u0123": 223, "\u0124": 224, "\u0125": 225, "\u0126": 226, "\u0127": 227, "\u0128": 228, "\u0129": 229, "\u012a": 230, "\u012b": 231, "\u012c": 232, "\u012d": 233, "\u012e": 234, "\u012f": 235, "\u0130": 236, "\u0131": 237, "\u0132": 238, "\u0133": 239, "\u0134": 240, "\u0135": 241, "\u0136": 242, "\u0137": 243, "\u0138": 244, "\u0139": 245, "\u013a": 246, "\u013b": 247, "\u013c": 248, "\u013d": 249, "\u013e": 250, "\u013f": 251, "\u0140": 252, "\u0141": 253, "\u0142": 254, "\u0143": 255, "\u0120M": 256, "\u010a\u0120": 257, "IN": 258, "\u0120A": 259, "VI": 260, "VIA": 261, "RE": 262, "\u0120=": 263, "\u0120<": 264, "\u0120O": 265, "TE": 266, "\u0120S": 267, "\u0120\u0120": 268, "\u0120(": 269, "en": 270, "\u0120E": 271, "\u0120IN": 272, "\u0120a": 273, "\u0120N": 274, "in": 275, "\u0120>": 276, "te": 277, "of": 278, "\u0120VIA": 279, "\u0120C": 280, "\u0120t": 281, "re": 282, "REA": 283, "RA": 284, "IO": 285, "um": 286, "\u0120{": 287, "SI": 288, "OT": 289, "UT": 290, "on": 291, "CT": 292, "end": 293, "DM": 294, "\u0120NOT": 295, "\u0120B": 296, "CH": 297, "tex": 298, "\u0120@": 299, "AREA": 300, "\u01200": 301, "text": 302, "|>": 303, "oftext": 304, "endoftext": 305, "<|": 306, "PO": 307, "ING": 308, "90": 309, "\u0120um": 310, "al": 311, "ND": 312, "\u0120to": 313, "LE": 314, "\u0120INTE": 315, "\u0120[": 316, "\u0120AB": 317, "DE": 318, "\u0120ABUT": 319, "\u012090": 320, "th": 321, "GE": 322, "\u0120m": 323, "REG": 324, "et": 325, "DN": 326, "er": 327, "id": 328, "RACT": 329, "\u0120INTERACT": 330, "ION": 331, "REGION": 332, "DGE": 333, "ed": 334, "LA": 335, "\u0120>=": 336, "\u0120P": 337, "SR": 338, "ec": 339, "\u0120s": 340, "NG": 341, "SIDE": 342, "\u0120an": 343, "TH": 344, "\u0120c": 345, "ER": 346, "le": 347, "\u0120EX": 348, "\u0120AND": 349, "\u0120\u010a\u0120": 350, "DMY": 351, "lo": 352, "\u0120REGION": 353, "etal": 354, "ing": 355, "ti": 356, "an": 357, "pa": 358, "\u0120in": 359, "\u0120\u0120\u0120\u0120": 360, "\u0120W": 361, "\u0120of": 362, "is": 363, "\u0120D": 364, "\u0120b": 365, "ce": 366, "CHK": 367, "\u0120metal": 368, "\u0120and": 369, "or": 370, "\u010a\u0120\u0120": 371, "\u0120EDGE": 372, "\u0120G": 373, "RS": 374, "\u0120w": 375, "EN": 376, "\u0120T": 377, "\u0120EXT": 378, "10": 379, "LY": 380, "\u0120^": 381, "EX": 382, "\u0120CO": 383, "NGLE": 384, "\u0120R": 385, "\u0120OR": 386, "ULA": 387, "ID": 388, "\u0120L": 389, "\u0120n": 390, "\u0120==": 391, "\u0120l": 392, "\u0120BY": 393, "\u0120X": 394, "pace": 395, "\u01201": 396, "\u0120OD": 397, "AL": 398, "\u0120SR": 399, "pe": 400, "\u0120INSIDE": 401, "\u0120d": 402, "\u0120ON": 403, "\u0120ONLY": 404, "CD": 405, "\u0120OP": 406, "ch": 407, "RING": 408, "POSI": 409, "\u0120OPPOSI": 410, "\u0120OPPOSITE": 411, "ATE": 412, "IP": 413, "\u0120f": 414, "\u0120CSR": 415, "\u0120<=": 416, "\u0120are": 417, "\u0120SING": 418, "ULAR": 419, "\u0120SINGULAR": 420, "ide": 421, "!!": 422, "ran": 423, "BRS": 424, "ranch": 425, "RID": 426, "he": 427, ")*": 428, "\u0120AREA": 429, "ot": 430, "OD": 431, "ET": 432, ")]": 433, "EC": 434, "OM": 435, "\u0120is": 436, "\u0120not": 437, "\u01202": 438, "idth": 439, "st": 440, "\u0120re": 441, "tion": 442, "ype": 443, "\u0120DM": 444, "la": 445, "11": 446, "IND": 447, "\u0120the": 448, "\u0120V": 449, "ro": 450, "CA": 451, "ve": 452, "\u0120ANGLE": 453, "ect": 454, "45": 455, "\u0120area": 456, "low": 457, "\u0120CH": 458, "EDGE": 459, "\u0120space": 460, "ypeBRS": 461, "at": 462, "onn": 463, "HV": 464, "00": 465, "\u0120INT": 466, "ith": 467, "llow": 468, "ty": 469, "CDDMY": 470, "CC": 471, "TIO": 472, "RATIO": 473, "\u0120ACC": 474, "\u0120Mx": 475, "\u0120RATIO": 476, "UTSIDE": 477, "\u0120OUTSIDE": 478, "NC": 479, "DB": 480, "\u0120ENC": 481, "\u0120I": 482, "ITH": 483, "DIO": 484, "\u0120Branch": 485, "\u0120mu": 486, "12": 487, "\u0120NET": 488, "TY": 489, "ECK": 490, "ion": 491, "LAY": 492, "LAYER": 493, "llowed": 494, "ia": 495, "\u0120e": 496, "\u0120allowed": 497, "SD": 498, "\u0120WITH": 499, "\u0120or": 500, "OS": 501, "TypeBRS": 502, "\u0120CHIP": 503, "tive": 504, "\u0120top": 505, "ge": 506, "pre": 507, "\u0120conn": 508, "\u0120PA": 509, "gion": 510, "\u0120on": 511, "GATE": 512, "UM": 513, "\u0120PO": 514, "\u0120LAYER": 515, "\u0120r": 516, "\u0120width": 517, "si": 518, "\u0120must": 519, "OW": 520, "\u0120RE": 521, "\u0120be": 522, "eng": 523, "ength": 524, "ter": 525, "CHECK": 526, "GRID": 527, "NGTH": 528, "LENGTH": 529, "op": 530, "\u0120TCDDMY": 531, ")/": 532, "\u0120*": 533, "EAL": 534, "EALRING": 535, "ANGLE": 536, "rom": 537, "AR": 538, "CB": 539, "SO": 540, "ula": 541, "loat": 542, "\u0120IND": 543, "\u0120length": 544, "loating": 545, "\u0120with": 546, "CTANGLE": 547, "ig": 548, "ON": 549, "eck": 550, "\u0120RECTANGLE": 551, "\u0120LENGTH": 552, "\u0120ch": 553, ")+": 554, "PA": 555, "CAP": 556, "\u0120OF": 557, "ine": 558, "OG": 559, "IZ": 560, "\u0120MOM": 561, "\u0120SIZ": 562, "\u0120SD": 563, "ef": 564, "err": 565, "OP": 566, "\u0120AL": 567, "\u0120by": 568, "UP": 569, "\u0120GATE": 570, "\u0120p": 571, "\u0120((": 572, "\u0120line": 573, "ure": 574, "\u012045": 575, "CSR": 576, "\u0120se": 577, "ST": 578, "\u0120ru": 579, "END": 580, "ensi": 581, "top": 582, "ensity": 583, "\u0120GRID": 584, "umula": 585, "umulative": 586, "ol": 587, "CO": 588, "ECT": 589, "\u0120Space": 590, "es": 591, "\u0120INTERS": 592, "\u0120INTERSECT": 593, "\u0120INTERSECTING": 594, "gle": 595, "\u0120SEALRING": 596, "LOS": 597, "\u0120region": 598, "HO": 599, "FM": 600, "MOM": 601, "HOLE": 602, "\u0120CB": 603, "))": 604, "\u0120PR": 605, "TCD": 606, "Via": 607, "OU": 608, "clo": 609, "clos": 610, "edge": 611, "\u0120connect": 612, "DEN": 613, "CHIP": 614, "\u0120!!": 615, "Ov": 616, "\u0120do": 617, "side": 618, "pM": 619, "OvpM": 620, "\u0120ENCLOS": 621, "\u0120ISO": 622, "\u0120CON": 623, "\u0120does": 624, "\u0120RDB": 625, "LLE": 626, "NP": 627, "\u0120PARA": 628, "\u0120PARALLE": 629, "\u0120PARALLEL": 630, "closure": 631, "NER": 632, "\u0120VIAx": 633, "ini": 634, "ME": 635, "ha": 636, "lea": 637, "\u0120ALL": 638, "ay": 639, "23": 640, "ow": 641, "\u0120DMV": 642, "il": 643, "RAM": 644, "ring": 645, "\u0120g": 646, "igh": 647, "URE": 648, "\u010a\u0120\u0120\u0120\u0120\u0120": 649, "\u0120pa": 650, "\u01203": 651, "Mx": 652, "\u01204": 653, "VER": 654, "\u0120one": 655, "25": 656, "ALL": 657, "\u0120[!!": 658, "de": 659, "EXC": 660, "olt": 661, "\u0120seal": 662, "DV": 663, "Volt": 664, "up": 665, "ly": 666, "ou": 667, "PAND": 668, "\u0120ENCLOSE": 669, "wi": 670, "VT": 671, "\u0120check": 672, "ver": 673, ")-": 674, "ar": 675, "\u0120COIN": 676, "RI": 677, "18": 678, "\u0120COP": 679, "\u0120STE": 680, "\u0120STEP": 681, "IDTH": 682, "ent": 683, "hape": 684, "\u0120COPY": 685, "\u010a\u010a": 686, "13": 687, "\u0120ACCUM": 688, "\u0120ACCUMULA": 689, "\u0120ACCUMULATE": 690, "dn": 691, "\u0120F": 692, "\u0120-": 693, "\u0120TOU": 694, "\u0120TOUCH": 695, "Branch": 696, "CACB": 697, "DTCD": 698, "\u010a\u0120\u0120\u0120": 699, "05": 700, "inition": 701, "efinition": 702, "fil": 703, "prefil": 704, "prefilter": 705, "EA": 706, "OWME": 707, "OWMEDN": 708, "\u0120WIDTH": 709, "\u0120from": 710, "\u0120Y": 711, "\u0120en": 712, "\u0120VT": 713, "\u0120lea": 714, "\u0120CSRDMY": 715, "UL": 716, "\u0120least": 717, "rid": 718, "rep": 719, "\u0120HV": 720, "Mer": 721, "\u0120for": 722, "\u0120DEN": 723, "\u0120inside": 724, "\u0120]": 725, "upOvpM": 726, "upOvpMdn": 727, "\u0120cumulative": 728, "DNW": 729, "\u0120MEA": 730, "\u0120MEAS": 731, "\u0120MEASURE": 732, "NOT": 733, "\u010a\u010a\u0120\u0120": 734, "\u0120at": 735, "mum": 736, "ner": 737, "ate": 738, "ff": 739, "lel": 740, "allel": 741, "SITY": 742, "DPO": 743, "\u0120!": 744, "\u0120DENSITY": 745, "rallel": 746, ")*(": 747, "\u0120floating": 748, "\u0120run": 749, "\u01205": 750, "isk": 751, "RR": 752, "\u0120Risk": 753, "from": 754, "Floating": 755, "WIN": 756, "net": 757, "\u0120SIZING": 758, "gre": 759, "his": 760, "\u0120angle": 761, "gree": 762, "\u0120Definition": 763, "om": 764, "TED": 765, "NEC": 766, "NECTED": 767, "ection": 768, "\u0120lay": 769, "\u0120\u0120\u0120\u010a\u0120": 770, "hapes": 771, "\u0120Shapes": 772, "\u0120pro": 773, "\u0120layer": 774, "\u0120ORTH": 775, "\u0120ORTHOG": 776, "\u0120ORTHOGON": 777, "\u0120ORTHOGONAL": 778, "\u0120CONNECTED": 779, "\u0120side": 780, "ingle": 781, "\u0120SRAM": 782, "we": 783, "\u0120bet": 784, "\u0120betwe": 785, "\u0120between": 786, "wo": 787, "EXD": 788, "AP": 789, "\u0120Mtop": 790, "lu": 791, "MP": 792, "\u0120Width": 793, "ged": 794, "clu": 795, "\u010a\u010a\u0120": 796, "EXT": 797, "\u0120En": 798, "OOD": 799, "RT": 800, "se": 801, "density": 802, "BM": 803, "~(": 804, "ip": 805, "))]": 806, "OPER": 807, "OPERTY": 808, ")*!": 809, "\u0120SIZE": 810, "VIRT": 811, "\u0120\"": 812, "17": 813, "\u0120connection": 814, "\u0120h": 815, "omm": 816, "ct": 817, "INT": 818, "AC": 819, "\u0120DUM": 820, "TER": 821, "Single": 822, "\u0120\u0120\u0120": 823, "SingleVia": 824, "ommend": 825, "Merged": 826, "LDB": 827, "\u0120err": 828, "\u0120de": 829, "INE": 830, "ax": 831, "\u0120DFM": 832, "\u0120PAD": 833, "14": 834, "\u0120Enclosure": 835, "axi": 836, "\u0120WIND": 837, "\u0120WINDOW": 838, "ole": 839, "\u0120BDTCD": 840, "egion": 841, "me": 842, "ced": 843, "15": 844, "\u0120parallel": 845, "aximum": 846, "\u0120GOOD": 847, "\u0120edge": 848, "\u0120U": 849, "TCDDMY": 850, "09": 851, "ri": 852, "MOS": 853, "\u0120rule": 854, "\u0120\u0120\u010a\u0120": 855, "\u0120Ch": 856, "\u0120eff": 857, "gon": 858, "SIZ": 859, "MPTY": 860, "\u0120di": 861, "BAR": 862, "\u0120chip": 863, "\u0120res": 864, "SIZE": 865, "\u0120density": 866, "ind": 867, "xMerged": 868, "\u0120Metal": 869, "\u0120EXC": 870, "TR": 871, "VTL": 872, "\u0120effect": 873, "\u0120ex": 874, "001": 875, "\u0120PROPERTY": 876, "VE": 877, "\u0120+": 878, "ACK": 879, "\u0120NW": 880, "indow": 881, "\u0120\u0120\u0120\u0120\u010a\u0120": 882, "\u0120bar": 883, "\u0120LOWMEDN": 884, "\u0120BACK": 885, "\u0120BACKUP": 886, "000": 887, "ction": 888, "as": 889, "pp": 890, "\u0120u": 891, "orner": 892, "\u0120corner": 893, "RNER": 894, "angle": 895, "\u0120{{": 896, "pec": 897, "\u0120EXPAND": 898, "FDM": 899, "\u0120PRINT": 900, "mp": 901, "SE": 902, "ecommend": 903, "clude": 904, "NW": 905, "all": 906, "\u0120[!": 907, "NET": 908, "\u0120BranchSingleVia": 909, "asVia": 910, "HasVia": 911, "\u0120hole": 912, "\u0120v": 913, "IVE": 914, "High": 915, "\u0120AP": 916, "Low": 917, "\u0120enclosure": 918, "\u0120My": 919, "OGO": 920, ")+!": 921, "\u0120This": 922, "mpty": 923, "\u0120!=": 924, "20": 925, "\u0120degree": 926, "cep": 927, "cumulative": 928, "\u0120\u0120\u0120\u0120\u0120\u0120\u0120\u0120": 929, "\u0120o": 930, "CUP": 931, "\u0120empty": 932, "__": 933, "ame": 934, "VEX": 935, "\u0120tri": 936, "\u0120triangle": 937, "\u0120areas": 938, "SP": 939, "LNP": 940, "eff": 941, "\u0120LNP": 942, "\u0120CHIPx": 943, "\u0120net": 944, "conn": 945, "Wide": 946, "connect": 947, "06": 948, "han": 949, "\u0120x": 950, "tively": 951, "pectively": 952, "\u0120respectively": 953, "ORI": 954, "connects": 955, "ecommended": 956, "od": 957, "ither": 958, "\u0120LOGO": 959, "cept": 960, "NH": 961, "\u0120same": 962, ",\"": 963, "HI": 964, "EXPAND": 965, "EXP": 966, "16": 967, "MupOvpMdn": 968, "per": 969, "TI": 970, "perty": 971, "\u0120property": 972, "ment": 973, "\u0120Maximum": 974, "RC": 975, "}}": 976, "MD": 977, "HVT": 978, "\u0120OVER": 979, "ood": 980, "\u0120EMPTY": 981, "ger": 982, "cu": 983, "\u0120Good": 984, "\u0120The": 985, "\u0120Mn": 986, "\u0120Check": 987, "NON": 988, "out": 989, "\u0120corners": 990, "\u0120TypeBRS": 991, "\u0120gate": 992, "\u0120VxMerged": 993, "\u012016": 994, "\u0120two": 995, "POLY": 996, ")*!!": 997, "FP": 998, "\u0120SLDB": 999, "\u0120checked": 1000, "RIVER": 1001, "DRIVER": 1002, "rea": 1003, "INDDMY": 1004, "PR": 1005, "\u0120angles": 1006, "HP": 1007, "tho": 1008, "\u0120window": 1009, "\u0120EXTE": 1010, "\u0120MupOvpMdn": 1011, "AD": 1012, "\u0120grid": 1013, "\u0120connections": 1014, "\u0120IMD": 1015, "\u0120via": 1016, "ments": 1017, "\u0120seg": 1018, "\u0120include": 1019, "\u0120segments": 1020, "\u0120CONVEX": 1021, "one": 1022, "33": 1023, "verla": 1024, "Mtop": 1025, "\u0120acu": 1026, "\u0120acute": 1027, "\u0120LAYERS": 1028, "\u0120At": 1029, "\u0120CHECK": 1030, "SEALRING": 1031, "either": 1032, "ple": 1033, "lti": 1034, "DOD": 1035, "\u0120multi": 1036, "\u0120co": 1037, "\u0120ortho": 1038, "\u0120orthogon": 1039, "\u0120orthogonal": 1040, "\u0120ne": 1041, "\u0120Recommended": 1042, "EL": 1043, "\u0120multiple": 1044, "ad": 1045, "pping": 1046, "VL": 1047, "tepping": 1048, "\u0120Via": 1049, "\u0120OFF": 1050, "\u0120OFFGRID": 1051, "\u0120inte": 1052, "\u0120integer": 1053, "Grid": 1054, "\u0120LINE": 1055, "bor": 1056, "boring": 1057, "ighboring": 1058, "XX": 1059, "NOTCH": 1060, "AIVE": 1061, "\u0120VTL": 1062, "Region": 1063, "\u0120ALSO": 1064, "Big": 1065, "\u0120layers": 1066, "\u0120z": 1067, "\u0120zone": 1068, "\u0120MUL": 1069, "\u0120MULTI": 1070, "\u0120enhan": 1071, "\u0120enhanced": 1072, "OL": 1073, "\u0120ver": 1074, "INNER": 1075, "EW": 1076, "for": 1077, "))])": 1078, "08": 1079, "dge": 1080, "Edge": 1081, "WAIVE": 1082, "ra": 1083, "\u0120GoodBranch": 1084, "\u0120Bad": 1085, "Rec": 1086, "\u0120OVERLA": 1087, "\u0120OVERLAP": 1088, "27": 1089, "\u0120con": 1090, "==": 1091, "late": 1092, "LOWMEDN": 1093, "HOLES": 1094, "\u0120op": 1095, "verlap": 1096, "NT": 1097, "\u0120stepping": 1098, "ist": 1099, "\u0120vertex": 1100, "\u0120neighboring": 1101, "\u0120doesn": 1102, "\u0120wh": 1103, "\u0120HVD": 1104, "MDMY": 1105, "\u0120DNW": 1106, "ii": 1107, "ERR": 1108, "red": 1109, "\u0120eVTL": 1110, "\u0120SQ": 1111, "CHAR": 1112, "CHARGE": 1113, "\u0120th": 1114, "CORNER": 1115, "po": 1116, "\u0120Wide": 1117, "ance": 1118, "qu": 1119, "\u0120RH": 1120, "\u0120(((": 1121, "\u0120dire": 1122, "\",": 1123, "degree": 1124, "ll": 1125, "den": 1126, "\u01206": 1127, "Pi": 1128, "site": 1129, "NXX": 1130, "\u0120VTH": 1131, "\u0120ISOR": 1132, "BC": 1133, "GH": 1134, "\u0120i": 1135, "\u0120H": 1136, "\u012018": 1137, "\u0120LUP": 1138, ")*!~(": 1139, "\u0120RPO": 1140, "\u0120DV": 1141, "\u0120CPO": 1142, "\u0120direction": 1143, "posite": 1144, ").": 1145, "\u0120/": 1146, "LINE": 1147, "li": 1148, "\u0120ERR": 1149, "\u0120VTUL": 1150, "MET": 1151, "\u012020": 1152, "\u0120DMx": 1153, "UVIA": 1154, "TEX": 1155, "\u0120VIAy": 1156, "HVD": 1157, "\u012036": 1158, "EXCL": 1159, "with": 1160, "\u0120MOMDMY": 1161, "ation": 1162, "VIAx": 1163, "\u0120opposite": 1164, "oly": 1165, "\u0120POST": 1166, "\u0120{@": 1167, "\u010a\u0120\u0120\u0120\u0120\u0120\u0120\u0120\u0120\u0120": 1168, "DUM": 1169, "OR": 1170, "\u0120SRDPO": 1171, "SRAM": 1172, "\u012036000": 1173, "\u0120ad": 1174, "\u0120UBM": 1175, "xcept": 1176, "ENC": 1177, "PAD": 1178, "\u0120sides": 1179, "ular": 1180, "\u0120that": 1181, "\u0120PW": 1182, "outer": 1183, "\u0120INDDMY": 1184, "cal": 1185, "LOW": 1186, "\u0120Region": 1187, "OUTER": 1188, "gular": 1189, "22": 1190, "\u0120NEW": 1191, "\u0120only": 1192, "LV": 1193, "SLDB": 1194, "way": 1195, "tection": 1196, "\u0120Mz": 1197, "COVL": 1198, "PROP": 1199, "\u010a\u0120\u0120\u0120\u0120\u0120\u0120": 1200, "\u0120plate": 1201, "\u0120away": 1202, "\u0120PP": 1203, "\u0120rect": 1204, "\u0120inter": 1205, "wide": 1206, "AN": 1207, "\u0120SRM": 1208, "\u0120fo": 1209, "DMx": 1210, "ESD": 1211, "\u0120EXTEND": 1212, "\u0120NT": 1213, "\u0120protection": 1214, "CORE": 1215, "\u0120Mr": 1216, "This": 1217, "\u0120INNER": 1218, "\u0120DRC": 1219, "and": 1220, "ur": 1221, "\u0120EHVT": 1222, "\u0120ring": 1223, "EFP": 1224, "\u0120us": 1225, "\u012010": 1226, "BDTCD": 1227, "tter": 1228, "02": 1229, "\u0120follow": 1230, "WI": 1231, "infor": 1232, "inforced": 1233, "\u0120without": 1234, "AX": 1235, "RV": 1236, "lease": 1237, "\u0120180": 1238, "angular": 1239, "ac": 1240, "),": 1241, "SA": 1242, "ERI": 1243, "wall": 1244, "NNH": 1245, "OPC": 1246, "\u0120VAR": 1247, "\u0120DOD": 1248, "50": 1249, "clud": 1250, "inimum": 1251, "\u0120RV": 1252, "\u0120inner": 1253, "ffer": 1254, "\u0120CORNER": 1255, "\u0120DUVIA": 1256, "UDE": 1257, "width": 1258, "\u0120rectangular": 1259, "JOG": 1260, "\u0120st": 1261, "idate": 1262, "cand": 1263, "candidate": 1264, "\u0120NP": 1265, "\u0120metals": 1266, "\u0120ESD": 1267, "\u0120VIAz": 1268, "07": 1269, "HIGH": 1270, "ul": 1271, "\u0120patter": 1272, "\u0120pattern": 1273, "\u0120lo": 1274, "REF": 1275, "urn": 1276, "METER": 1277, "ERIMETER": 1278, "olygon": 1279, "iso": 1280, "\u0120all": 1281, "\u0120outer": 1282, "uct": 1283, "NMOS": 1284, "\u0120SRAMDMY": 1285, "\u0120local": 1286, "dense": 1287, "\u0120turn": 1288, "ERGE": 1289, "\u0120overlap": 1290, "\u0120\u010a\u0120\u0120": 1291, "jac": 1292, "jacent": 1293, "act": 1294, "SH": 1295, "\u0120used": 1296, "\u0120regionB": 1297, "nd": 1298, "Area": 1299, "\u0120AN": 1300, "\u0120PERIMETER": 1301, "\u0120ENCLOSURE": 1302, "are": 1303, "ined": 1304, "32": 1305, "\u0120VTU": 1306, "\u0120connects": 1307, "ne": 1308, "check": 1309, "ED": 1310, "\u0120following": 1311, "parallel": 1312, "TA": 1313, "\u0120[-": 1314, "\u0120as": 1315, "DVIA": 1316, "vered": 1317, "BAD": 1318, "\u0120[-=": 1319, "tio": 1320, "\u0120covered": 1321, "CE": 1322, "\u0120POLY": 1323, "RDB": 1324, "\u01208": 1325, "\u0120any": 1326, "\u0120except": 1327, "\u0120SL": 1328, "\u0120Mu": 1329, "\u0120HOLES": 1330, "\u010a\u0120\u0120\u010a\u0120": 1331, "SCH": 1332, "tal": 1333, "BY": 1334, "\":": 1335, "RAY": 1336, "ONG": 1337, "\u0120SDI": 1338, "\u0120\u0120\u0120\u0120\u0120": 1339, "\u0120EXTENDED": 1340, "SRM": 1341, "\u0120DPO": 1342, "\u0120sh": 1343, "SDc": 1344, "\u0120Checked": 1345, "ACT": 1346, "ONUT": 1347, "Merge": 1348, "\u0120DONUT": 1349, "\u010a\u010a\u010a\u010a": 1350, "ss": 1351, "DRC": 1352, "03": 1353, "\u0120For": 1354, "ARRAY": 1355, "PMOS": 1356, "quare": 1357, "\u0120CUT": 1358, "\u0120ha": 1359, "\u0120ICOVL": 1360, "Con": 1361, "IM": 1362, "04": 1363, "STPi": 1364, "\u0120interact": 1365, "\u0120EFP": 1366, "\u0120if": 1367, "\u0120SQR": 1368, "sion": 1369, "IB": 1370, "FU": 1371, "\u0120total": 1372, "\u0120VIAr": 1373, "LD": 1374, "TEXT": 1375, "WITH": 1376, "NDER": 1377, "\u0120differ": 1378, "\u0120LONG": 1379, "fined": 1380, "Confined": 1381, "\u0120str": 1382, "ut": 1383, "oth": 1384, "\u0120CT": 1385, "\u0120)": 1386, "BranchSingleVia": 1387, "\")]": 1388, "ension": 1389, "\u0120{{{": 1390, "\u010a\u0120\u0120\u0120\u0120\u0120\u0120\u0120\u0120": 1391, "og": 1392, "Ng": 1393, "005": 1394, "ard": 1395, "\u0120END": 1396, "\u0120sidewall": 1397, "\u0120VIAtop": 1398, "\u0120REC": 1399, "FMx": 1400, "ode": 1401, "\u0120fla": 1402, "\u0120flag": 1403, "\u0120DMY": 1404, "LL": 1405, "\u0120MERGE": 1406, "\u0120regions": 1407, "uard": 1408, "\u0120struct": 1409, "\u0120structure": 1410, "RMDMY": 1411, "RH": 1412, "ld": 1413, "DI": 1414, "JT": 1415, "\u0120PWR": 1416, "26": 1417, "\u0120sealring": 1418, "\u0120VIAu": 1419, "window": 1420, "\u0120rec": 1421, "34": 1422, "EMPTY": 1423, "istance": 1424, "\u0120adjacent": 1425, "FC": 1426, "\u0120high": 1427, "VxMerged": 1428, "\u0120pad": 1429, "RES": 1430, "ap": 1431, "anne": 1432, "19": 1433, "effect": 1434, "\u0120recommend": 1435, "\u0120shou": 1436, "\u0120should": 1437, "annel": 1438, "\u0120CBM": 1439, "ENTER": 1440, "\u0120EXCL": 1441, "\u0120EXCLUDE": 1442, "065": 1443, "\u0120EXTENT": 1444, "di": 1445, "WAR": 1446, "WARN": 1447, "PP": 1448, "UBM": 1449, "FUSE": 1450, "umb": 1451, "umber": 1452, "\u0120EXTENTS": 1453, "BIB": 1454, "my": 1455, "it": 1456, "70": 1457, "MAX": 1458, "IF": 1459, "fer": 1460, "PROPERTY": 1461, "shape": 1462, "\u0120SRDOD": 1463, "\u0120both": 1464, "\u0120VTLN": 1465, "checking": 1466, "CTM": 1467, ")+!(": 1468, "cluding": 1469, "erance": 1470, "USH": 1471, ")+!~(": 1472, ")*!!(": 1473, "ill": 1474, "\u0120tol": 1475, "\u0120tolerance": 1476, "\u0120turning": 1477, "FDMx": 1478, "\u0120when": 1479, ")+~(": 1480, "ully": 1481, "RW": 1482, "\u0120square": 1483, "\u0120end": 1484, "ARE": 1485, "UARE": 1486, "\u0120CTM": 1487, "\u0120SQUARE": 1488, "\u0120type": 1489, "\u0120UNDER": 1490, "\u0120UNDERO": 1491, "\u0120UNDEROVER": 1492, "\u0120fully": 1493, "INSIDE": 1494, "einforced": 1495, "SPA": 1496, "\u0120+-": 1497, "POST": 1498, "atio": 1499, "\u0120-=": 1500, "\u0120eVTLN": 1501, "ESIDE": 1502, "\u0120Area": 1503, "ummy": 1504, "MAC": 1505, "\u0120eVTLP": 1506, "\u0120125": 1507, "],": 1508, "\u0120ratio": 1509, "DD": 1510, "}]": 1511, "\u0120NO": 1512, "\u0120NOEMPTY": 1513, "\u0120RMDMY": 1514, "ke": 1515, "\u0120whi": 1516, "CON": 1517, "\u0120BESIDE": 1518, "\u0120use": 1519, "OJ": 1520, "\u0120le": 1521, "21": 1522, "\u0120over": 1523, "FH": 1524, "pac": 1525, "\u0120edges": 1526, "01": 1527, "tension": 1528, "\u0120NOTCH": 1529, "\u0120cons": 1530, "\u0120\u010a\u0120\u0120\u0120\u0120\u0120\u0120\u0120\u0120\u0120": 1531, "\u0120NTN": 1532, "raw": 1533, "DMz": 1534, "\u0120PROJ": 1535, "ES": 1536, "HN": 1537, "055": 1538, "PW": 1539, "\u0120lengths": 1540, "rt": 1541, "Vx": 1542, "\u0120270": 1543, "LOSE": 1544, "ENCLOSE": 1545, "\u0120refer": 1546, "DVz": 1547, "\u0120DVIA": 1548, "ck": 1549, "DED": 1550, "DIODE": 1551, "MV": 1552, "UD": 1553, "\u0120DTCD": 1554, "polygon": 1555, "\u0120GATES": 1556, "GATES": 1557, "istor": 1558, "\u0120NOP": 1559, "\u0120NOPSE": 1560, "\u0120NOPSEUD": 1561, "\u0120NOPSEUDO": 1562, "HIEL": 1563, "HIELDED": 1564, "GOOD": 1565, "ther": 1566, "\u0120CAD": 1567, "ted": 1568, "\u0120distance": 1569, "\u0120consec": 1570, "\u0120consecu": 1571, "\u0120consecutive": 1572, "\u0120Minimum": 1573, "\u0120app": 1574, "\u0120SHIELDED": 1575, "\u0120resistor": 1576, "\u0120PUSH": 1577, "\u0120appli": 1578, "INJ": 1579, "\u0120VTLP": 1580, "\u0120will": 1581, "\u0120ANARRAY": 1582, "\u0120different": 1583, "EF": 1584, "LN": 1585, "\u0120CENTER": 1586, "\u0120Length": 1587, "mall": 1588, "28": 1589, "\u0120than": 1590, "\u0120Reinforced": 1591, "\u0120\u0120\u0120\u0120\u0120\u0120": 1592, "vi": 1593, "qui": 1594, "))*!~(": 1595, "metal": 1596, "\u010a\u010a\u010a\u010a\u0120": 1597, "except": 1598, "\u0120regionA": 1599, "DVx": 1600, ".)": 1601, "\u0120VTHN": 1602, "/^": 1603, "\u0120ACT": 1604, "DNWR": 1605, "VTUL": 1606, "HIA": 1607, "SING": 1608, "SINGLE": 1609, "\u0120PM": 1610, "ort": 1611, "DIS": 1612, "Except": 1613, "\u0120VTULN": 1614, "\u0120windows": 1615, "72": 1616, "vice": 1617, "\u0120device": 1618, "\u0120requi": 1619, "\u0120\u010a\u0120\u0120\u0120": 1620, "\u0120required": 1621, "pacing": 1622, "\u0120ACTIVE": 1623, "\u0120OVL": 1624, "\u0120holes": 1625, "))*": 1626, "\u0120Z": 1627, "\u0120spacing": 1628, "75": 1629, "\u0120PMET": 1630, "ODAL": 1631, "\u0120other": 1632, "31": 1633, "closed": 1634, "\u0120VDD": 1635, "ESF": 1636, "ach": 1637, "MIN": 1638, "DISCHARGE": 1639, "\u0120Enclosed": 1640, "VAR": 1641, "54": 1642, "\u0120VTHP": 1643, "eVTL": 1644, "DVr": 1645, "\u0120please": 1646, "\u0120definition": 1647, "RPO": 1648, "VTH": 1649, "!!!!": 1650, "\u0120ti": 1651, "\u0120VTULP": 1652, "\u0120un": 1653, "\u0120FM": 1654, "JTDMY": 1655, "\u0120AVT": 1656, "\u0120VTUHN": 1657, "\u0120low": 1658, "\u0120core": 1659, "MIM": 1660, "\u0120Please": 1661, "FD": 1662, "ule": 1663, "\u0120diode": 1664, "\u0120have": 1665, ")*~(": 1666, "TAGE": 1667, "OLTAGE": 1668, "53": 1669, "..": 1670, "30": 1671, "\u012025": 1672, "\u0120VTUHP": 1673, "\u0120reinforced": 1674, "\u0120dummy": 1675, "\u0120maximum": 1676, "xp": 1677, "47": 1678, "050": 1679, "\u0120extension": 1680, "IDE": 1681, "MLV": 1682, "EHVT": 1683, "\u0120OLD": 1684, "\u0120In": 1685, "FV": 1686, "DMy": 1687, "\u0120DVIAx": 1688, "My": 1689, "NOTATE": 1690, "\u0120add": 1691, "\u010a\u0120\u0120\u0120\u0120\u0120\u0120\u0120": 1692, "AT": 1693, "270": 1694, "\u012012": 1695, "ick": 1696, ")))": 1697, "igure": 1698, "ener": 1699, "\u0120while": 1700, "ated": 1701, "\u0120gener": 1702, "\u0120vias": 1703, "\u0120PADM": 1704, "\u0120XOR": 1705, "\u0120VOLTAGE": 1706, "\u0120can": 1707, "\u0120GM": 1708, "Jog": 1709, "((": 1710, "\u0120wide": 1711, "\u0120def": 1712, "ridge": 1713, "\u0120Small": 1714, "hort": 1715, "guard": 1716, "hortE": 1717, "hortExp": 1718, "RO": 1719, "MACRO": 1720, "\u0120CMACRO": 1721, "vo": 1722, "void": 1723, "\u0120including": 1724, "within": 1725, "Mz": 1726, "\u0120avoid": 1727, "\u0120~": 1728, "\u0120generated": 1729, "\u0120Type": 1730, "\u0120Chip": 1731, "CONVEX": 1732, "\u0120SmallJog": 1733, "\u0120ShortExp": 1734, "\u0120PACT": 1735, "ANNOTATE": 1736, "MB": 1737, "\u0120J": 1738, "It": 1739, "\u0120lines": 1740, "\u0120polygon": 1741, "\u0120K": 1742, "GTE": 1743, "without": 1744, "TS": 1745, "\u0120exclude": 1746, "\u0120time": 1747, "\u012050": 1748, "\u0120HIA": 1749, "})": 1750, "ore": 1751, "ess": 1752, "\u0120MV": 1753, "uleR": 1754, "\u0120excludeRR": 1755, "\u0120excludeRRuleR": 1756, "\u0120excludeRRuleRecommended": 1757, "\u0120VER": 1758, "\u0120VERTEX": 1759, "\u0120RHPO": 1760, "\u0120Rc": 1761, "\u0120flags": 1762, "\u0120DIO": 1763, "STP": 1764, "LUP": 1765, "63": 1766, "WARNING": 1767, "260": 1768, "\u0120DIODMY": 1769, "\u0120minimum": 1770, "like": 1771, "\u0120162": 1772, "\u0120(!": 1773, "},": 1774, "\u0120figure": 1775, "\u0120BAD": 1776, "\u0120(!!": 1777, "lated": 1778, "uce": 1779, "thick": 1780, "thickn": 1781, "thickness": 1782, "\u0120GVIA": 1783, "\u0120Channel": 1784, "\u0120\u010a\u0120\u0120\u0120\u0120\u0120": 1785, "MY": 1786, "\u0120NODAL": 1787, "DENSE": 1788, "ENDIF": 1789, ">=": 1790, "35": 1791, "POOL": 1792, "\u0120has": 1793, "SS": 1794, "DUMMY": 1795, "REC": 1796, "GGE": 1797, "\u0120ST": 1798, "\u0120applied": 1799, "\u0120\u010a\u0120\u0120\u0120\u0120\u0120\u0120": 1800, "\u010a\u0120\u0120\u0120\u0120\u0120\u0120\u0120\u0120\u0120\u0120\u0120\u0120\u0120": 1801, "DMr": 1802, "NWi": 1803, "cluded": 1804, "ICOVL": 1805, "IC": 1806, "200": 1807, "INK": 1808, "DVy": 1809, "\u0120either": 1810, "GGER": 1811, "\u0120CA": 1812, "line": 1813, "1000": 1814, "85": 1815, "\u0120Mup": 1816, "\u0120Mdn": 1817, "IGH": 1818, "two": 1819, "\u0120\u0120\u0120\u010a\u0120\u0120": 1820, "\u010a\u0120\u0120\u0120\u0120\u0120\u0120\u0120\u0120\u0120\u0120": 1821, "\u0120STA": 1822, "\u0120STAMP": 1823, "24": 1824, "arge": 1825, "\u0120Each": 1826, "\u0120,": 1827, "\u0120cont": 1828, "\u012062": 1829, "ence": 1830, "\u0120draw": 1831, "ox": 1832, "162": 1833, "the": 1834, "rr": 1835, "VIAtop": 1836, "PACT": 1837, "\u0120IO": 1838, "\u0120recommendation": 1839, "\u0120GB": 1840, "\u01207": 1841, "\u0120bent": 1842, "overlap": 1843, "argeN": 1844, "argeNumber": 1845, "no": 1846, "\u0120MIM": 1847, "dition": 1848, "\u0120guard": 1849, "VAL": 1850, "jog": 1851, "VALU": 1852, "VALUE": 1853, "RAP": 1854, "\u0120&": 1855, "\u0120LargeNumber": 1856, "ult": 1857, "\u0120but": 1858, "IMP": 1859, "ATCH": 1860, "inner": 1861, "DEF": 1862, "STA": 1863, "RWi": 1864, "via": 1865, "PS": 1866, "Mu": 1867, "ATCHING": 1868, "ISO": 1869, "\u0120STRAP": 1870, "\u0120\u0120\u010a\u0120\u0120": 1871, "\u0120within": 1872, "noIND": 1873, "EXCLUDE": 1874, "AB": 1875, "STAGGER": 1876, "035": 1877, ")).": 1878, "\u0120If": 1879, "rain": 1880, "\u0120MxR": 1881, "VICE": 1882, "DEVICE": 1883, "\u0120VIAxMerged": 1884, "\u0120BJTDMY": 1885, "\u012015": 1886, "\u0120TOL": 1887, "\u0120ab": 1888, "erged": 1889, "\u0120Crt": 1890, "SRDPO": 1891, "\u0120It": 1892, "\u0120leve": 1893, "\u0120level": 1894, "\u0120LV": 1895, "ault": 1896, "\u0120RF": 1897, "LH": 1898, "65": 1899, "CPO": 1900, "\u0120TypeLE": 1901, "\u0120TypeLEH": 1902, "\u0120PMOS": 1903, "\u0120cover": 1904, "\u0120bars": 1905, "{{": 1906, "\u0120Di": 1907, "iz": 1908, "UNT": 1909, "\u0120ts": 1910, "\u0120tsm": 1911, "\u0120tsmc": 1912, "\u0120related": 1913, "\u0120IP": 1914, "maximum": 1915, "EGTE": 1916, "GB": 1917, "\u01209": 1918, "\u0120NMOS": 1919, "lic": 1920, "\u0120ODi": 1921, "\u0120An": 1922, "\u0120checking": 1923, "SPACE": 1924, "TOP": 1925, "ELSE": 1926, "\u0120rot": 1927, "\u0120added": 1928, "<=": 1929, "SB": 1930, "NEW": 1931, "LP": 1932, "\u0120*!!": 1933, "\u0120patterns": 1934, "\u0120drawn": 1935, "US": 1936, "\u0120Density": 1937, "LO": 1938, "\u0120vi": 1939, "\u0120MFUSE": 1940, "\u0120form": 1941, "\u012022": 1942, "0000": 1943, "\u0120condition": 1944, "\u0120spec": 1945, "age": 1946, "\u012085": 1947, "\u0120number": 1948, "MC": 1949, "\u0120default": 1950, "\u0120INDR": 1951, "\u0120LD": 1952, "\u0120LDP": 1953, "ations": 1954, "\u0120LDN": 1955, "PINJ": 1956, "NINJ": 1957, "\u0120RHOD": 1958, "\u0120there": 1959, "ratio": 1960, "\u0120speci": 1961, "DUVIA": 1962, "OUT": 1963, "\u0120OU": 1964, "\u0120OUTER": 1965, "verlay": 1966, "\u0120Overlay": 1967, "\u0120NWi": 1968, "ai": 1969, "log": 1970, "NO": 1971, "\u0120conf": 1972, "\u0120PADH": 1973, "not": 1974, "ided": 1975, "44": 1976, "115": 1977, "ell": 1978, "CL": 1979, "\u0120VI": 1980, "HVDN": 1981, "\u0120VIMB": 1982, "\u0120Ind": 1983, "\u0120Induce": 1984, "\u0120Bridge": 1985, "025": 1986, "tem": 1987, "IFDEF": 1988, "\u0120config": 1989, "\u0120configu": 1990, "\u0120configura": 1991, "\u0120configuration": 1992, "\u0120Side": 1993, "\u0120Sidewall": 1994, "\u0120NWDMY": 1995, "\u0120cut": 1996, "\".": 1997, "PDMY": 1998, "\u0120excluded": 1999, "\u0120CBD": 2000, "APi": 2001, "enti": 2002, "area": 2003, "\u0120DUMVIA": 2004, "37": 2005, "36": 2006, "\u0120NWEL": 2007, "HVDP": 2008, "rawing": 2009, "drawing": 2010, "TRI": 2011, "ULK": 2012, "TIER": 2013, "VTU": 2014, "()-": 2015, "ODi": 2016, "\u0120Mxy": 2017, "\u0120difference": 2018, "\u0120:": 2019, "VN": 2020, "ected": 2021, "BULK": 2022, "iB": 2023, "ANARRAY": 2024, "DUMVIA": 2025, "\u0120Overlap": 2026, "\u0120MOS": 2027, "\u0120POi": 2028, "\u0120no": 2029, "bid": 2030, "\u0120forbid": 2031, "\u0120forbidden": 2032, "\u0120FMAX": 2033, "ond": 2034, "\u0120section": 2035, "\u0120abo": 2036, "\u0120above": 2037, "\u0120{(": 2038, "\u0120CHK": 2039, "HG": 2040, "ELL": 2041, "\u0120special": 2042, "WIDTH": 2043, "ex": 2044, "\u0120more": 2045, "NTN": 2046, "!!!!<|": 2047, "\u0120COUNT": 2048, "\u0120Any": 2049, "sig": 2050, "\u0120bond": 2051, "WISR": 2052, "\u0120excluding": 2053, "TSMC": 2054, "\u0120SPA": 2055, "\u0120SPACE": 2056, "ector": 2057, "180": 2058, "aive": 2059, "55": 2060, "\u0120NACT": 2061, "\u0120Recommend": 2062, "nly": 2063, "\u0120Only": 2064, "\u0120ind": 2065, "\u0120875": 2066, "\u0120ROM": 2067, "\u0120NSDc": 2068, "186": 2069, "ola": 2070, "\u0120SRE": 2071, "ts": 2072, "\u0120WB": 2073, "\u0120APi": 2074, "\u0120whole": 2075, "...": 2076, "\u0120Ex": 2077, "enter": 2078, "Vi": 2079, "\u010a\u0120\u0120\u0120\u0120\u0120\u0120\u0120\u0120\u0120\u0120\u0120\u0120": 2080, "\u0120DACT": 2081, "\u0120NXX": 2082, "PM": 2083, "\u0120UHVT": 2084, "\u0120poly": 2085, "\u0120PSDc": 2086, ")+!!": 2087, "\u0120recommended": 2088, "\u0120GATED": 2089, "\u0120PSTPi": 2090, "silic": 2091, "CDMY": 2092, "ong": 2093, "\u0120SRESD": 2094, "\u0120this": 2095, "\u0120conditions": 2096, "\u0120ESDIMP": 2097, "sign": 2098, "50000": 2099, "\u0120Ad": 2100, "waive": 2101, "EOL": 2102, "\u0120proce": 2103, "\u0120process": 2104, "\u0120wall": 2105, "\u0120cell": 2106, "\u0120siz": 2107, "pin": 2108, "PIN": 2109, "\u0120COi": 2110, "\u0120TN": 2111, "hole": 2112, "AVT": 2113, "channel": 2114, "olation": 2115, "VNI": 2116, "VNIX": 2117, "OUND": 2118, "\u0120less": 2119, "ULL": 2120, "nder": 2121, "MOMlike": 2122, "\u0120min": 2123, "\u0120jog": 2124, "WB": 2125, "\u0120induct": 2126, "\u0120inductor": 2127, "silicided": 2128, "\u0120under": 2129, "\u0120merged": 2130, "OUNDAR": 2131, "OUNDARY": 2132, "PASS": 2133, "\u0120OPC": 2134, "ross": 2135, "\u0120exist": 2136, "ark": 2137, "\u0120Adjacent": 2138, "MOMDMY": 2139, "UIDE": 2140, "3000": 2141, "\u0120NSTPi": 2142, "\u0120design": 2143, "\u0120unsilicided": 2144, "\u0120unit": 2145, "\u0120it": 2146, "fferent": 2147, "different": 2148, "ENT": 2149, "\u0120TO": 2150, "\u0120HVNW": 2151, "LAST": 2152, "PMET": 2153, "\u0120ca": 2154, "ROD": 2155, "MID": 2156, "stepping": 2157, "\u0120Except": 2158, "\u0120!~(": 2159, "ain": 2160, "PSDc": 2161, "NSDc": 2162, "MERGE": 2163, "\u0120NE": 2164, "\u010a\u010a\u010a\u0120": 2165, "PSTPi": 2166, "BOUNDARY": 2167, "100": 2168, "\u0120{{{{{": 2169, "cap": 2170, "hen": 2171, "\u0120po": 2172, "\u0120When": 2173, "/...": 2174, "/.../": 2175, "\u0120RPDMY": 2176, "POi": 2177, "rror": 2178, "Wi": 2179, "93": 2180, "\u0120option": 2181, "\u0120SRPO": 2182, "Mr": 2183, "\u0120id": 2184, "VIAT": 2185, "\u0120identi": 2186, "\u0120MATCHING": 2187, "\u0120sizing": 2188, "gate": 2189, "SOL": 2190, "SL": 2191, "^-": 2192, "*(": 2193, ")^-": 2194, "\u0120CUP": 2195, "\u0120MIN": 2196, "USER": 2197, "GUIDE": 2198, "1812": 2199, "\u0120EFPM": 2200, "\u0120which": 2201, "\u0120GRA": 2202, "\u0120GRADI": 2203, "\u0120GRADIENT": 2204, "\u0120ABSOL": 2205, "\u0120ABSOLU": 2206, "\u0120ABSOLUTE": 2207, "RINK": 2208, "\u0120den": 2209, "\u0120dense": 2210, "\u0120applic": 2211, "VTLN": 2212, "SRAMDMY": 2213, "YM": 2214, "WLD": 2215, "CBM": 2216, "\u0120Cumulative": 2217, "NSTPi": 2218, "\u0120al": 2219, "und": 2220, "\u0120contain": 2221, "56": 2222, "\u0120\u0120\u0120\u0120\u010a\u0120\u0120\u0120\u0120\u0120\u0120": 2223, "155": 2224, "\u012030": 2225, "vr": 2226, "dvr": 2227, "\u0120\u010a\u010a\u0120": 2228, "\u0120center": 2229, "ient": 2230, "WR": 2231, "RM": 2232, "SIL": 2233, "SILIC": 2234, "SILICIDE": 2235, "51": 2236, "UHVT": 2237, "\u0120mi": 2238, "\u0120rotation": 2239, "\u0120mirror": 2240, "atype": 2241, "atatype": 2242, "\u0120endcap": 2243, "mension": 2244, "STI": 2245, "\u0120below": 2246, "mu": 2247, "\u0120HOLE": 2248, "include": 2249, "POD": 2250, "OVE": 2251, "LOGO": 2252, "29": 2253, "\u0120PFD": 2254, "\u010a\u010a\u010a\u010a\u010a\u010a": 2255, "\u0120RIGH": 2256, "\u0120RIGHT": 2257, "\u010a\u010a\u010a\u0120\u0120": 2258, "\u0120orient": 2259, "\u0120orientation": 2260, "\u0120VIAxy": 2261, "ual": 2262, "\u0120vertexes": 2263, "\u0120TOP": 2264, "FI": 2265, "075": 2266, "\u0120NEIGH": 2267, "\u0120NEIGHB": 2268, "\u0120NEIGHBOR": 2269, "tical": 2270, "neighboring": 2271, "\u0120com": 2272, "00000": 2273, "OLD": 2274, "1815": 2275, "\u0120LE": 2276, "\u0120LEF": 2277, "\u0120LEFT": 2278, "WDMY": 2279, "\u0120drain": 2280, "round": 2281, "\u0120formed": 2282, "CENTER": 2283, "\u0120BOT": 2284, "\u0120BOTT": 2285, "\u0120BOTTOM": 2286, "\u0120ac": 2287, "idd": 2288, "iddle": 2289, "2533": 2290, "distance": 2291, "ABOVE": 2292, "SYM": 2293, "LINK": 2294, "TAP": 2295, "\u0120PORES": 2296, "\u0120beside": 2297, "TERACT": 2298, "INTERACT": 2299, ")),": 2300, "TSV": 2301, "\u0120NFD": 2302, "NAN": 2303, "\u0120POFUSE": 2304, "CAPDMY": 2305, "UB": 2306, "PSUB": 2307, "\u0120Do": 2308, "\u0120TCDMY": 2309, "\u0120checks": 2310, "\u0120single": 2311, "\u0120MAX": 2312, "\u0120Extension": 2313, "ir": 2314, "ONGE": 2315, "ONGEDGE": 2316, "our": 2317, "BJTDMY": 2318, "Fi": 2319, "EB": 2320, "MxR": 2321, "\u0120AY": 2322, "\u0120AYRE": 2323, "REND": 2324, "52": 2325, "\u0120need": 2326, "EDGEB": 2327, "EDGEA": 2328, "sib": 2329, "ssib": 2330, "VTULN": 2331, "\u0120gates": 2332, "ource": 2333, "lt": 2334, "\u0120PADDMY": 2335, "BiB": 2336, "\u0120PTAP": 2337, "\u0120NTAP": 2338, "oll": 2339, "ollector": 2340, "ili": 2341, "PI": 2342, "\u0120Die": 2343, "41": 2344, "\u0120bridge": 2345, "\u0120Mxs": 2346, "\u0120Definitions": 2347, "NANO": 2348, "FILL": 2349, "ACTIVE": 2350, "80": 2351, "\u0120connected": 2352, "\u0120ILP": 2353, "160": 2354, "\u0120application": 2355, "\u0120))": 2356, "ONOS": 2357, "\u0120possib": 2358, "FHV": 2359, "\u0120PWELL": 2360, "\u0120REG": 2361, "Vss": 2362, "\u0120Lay": 2363, "fi": 2364, "TION": 2365, "\u0120WBDMY": 2366, "\u0120OVERU": 2367, "\u0120OVERUNDER": 2368, "\u010a\u0120\u0120\u0120\u0120\u0120\u0120\u0120\u0120\u0120\u0120\u0120\u0120\u0120\u0120\u0120\u0120\u0120\u0120\u0120\u0120\u0120": 2369, "eVTLN": 2370, "\u010a\u0120\u0120\u0120\u010a\u0120\u0120": 2371, "ound": 2372, "INDx": 2373, "DVu": 2374, "DMu": 2375, "\u0120rectangle": 2376, "\u0120Max": 2377, "\u0120these": 2378, "RAIN": 2379, "DIODMY": 2380, "\u0120cou": 2381, "\u0120LAST": 2382, "NWEL": 2383, "ABUT": 2384, "rray": 2385, "\u0120coun": 2386, "HPM": 2387, "\u0120item": 2388, "\u0120Recommendations": 2389, "\u0120Layout": 2390, "same": 2391, "\u0120\u0120\u0120\u0120\u0120\u010a\u0120": 2392, "\u0120Dimension": 2393, "\u0120DE": 2394, "5000": 2395, "\u0120counts": 2396, "\u0120off": 2397, "\u01205000": 2398, "\u0120Q": 2399, "\u0120datatype": 2400, "38": 2401, "2518": 2402, "\u0120needs": 2403, "Please": 2404, "\u0120array": 2405, "\u0120NOU": 2406, "\u0120NOUSE": 2407, "BJT": 2408, "ord": 2409, "non": 2410, "015": 2411, "\u0120violation": 2412, "VTHN": 2413, "\u0120POS": 2414, "60": 2415, "dummy": 2416, "\u0120datatypes": 2417, "itch": 2418, "VTLP": 2419, "Vpp": 2420, "\u0120each": 2421, "mg": 2422, "\u0120channel": 2423, "}},": 2424, "\u0120CSRBIB": 2425, "MA": 2426, "CAD": 2427, "RHOD": 2428, "\u0120mark": 2429, "EP": 2430, "DMOS": 2431, "\u0120BJT": 2432, "\u0120WEL": 2433, "\u0120MT": 2434, "mun": 2435, "NACT": 2436, "}})": 2437, "ust": 2438, "TC": 2439, "\u0120?": 2440, "OPTION": 2441, "\u0120pla": 2442, "its": 2443, "\u0120pitch": 2444, "\u0120PCL": 2445, "SRPO": 2446, "\u0120MW": 2447, "\u010a\u010a\u010a": 2448, "VSS": 2449, "any": 2450, "UN": 2451, "MATCHING": 2452, "BO": 2453, "\u0120ODRES": 2454, "\u0120HVPSUB": 2455, "\u0120then": 2456, "40": 2457, "\u0120FHV": 2458, "eVTLP": 2459, "VDD": 2460, "\u0120RVi": 2461, "ERROR": 2462, "SLR": 2463, "ustom": 2464, "ustomer": 2465, "VTUHN": 2466, "NODAL": 2467, "\u0120dow": 2468, "\u0120down": 2469, "TOL": 2470, "ower": 2471, "VTUHP": 2472, "BL": 2473, "lineend": 2474, "\u010a\u010a\u0120\u0120\u0120": 2475, "\u0120Min": 2476, "ircu": 2477, "].": 2478, "RECTANGLE": 2479, "\u0120cross": 2480, "\u0120VIAyz": 2481, "tier": 2482, "IG": 2483, "255": 2484, "co": 2485, "PORES": 2486, "\u0120customer": 2487, "\u0120RFDMY": 2488, "use": 2489, "RECT": 2490, "tri": 2491, "IOVSS": 2492, "83": 2493, "\u0120\u0120\u0120\u0120\u0120\u0120\u0120\u0120\u0120": 2494, "\u0120RES": 2495, "VTULP": 2496, "HD": 2497, "ENG": 2498, "BTC": 2499, "\u0120defined": 2500, "\u0120PPi": 2501, "\u0120UDM": 2502, "ous": 2503, "RHPO": 2504, "lip": 2505, ")}": 2506, "\u0120EMPTYi": 2507, "fied": 2508, "EMPTYi": 2509, ")>": 2510, "\u0120proj": 2511, "\u0120identified": 2512, "\u0120ta": 2513, "210": 2514, "\u0120PS": 2515, "085": 2516, "JTR": 2517, "\u0120fill": 2518, "rime": 2519, "\u0120\u0120\u0120\u0120\u0120\u0120\u0120\u0120\u0120\u0120\u0120\u0120\u0120\u0120\u0120\u0120": 2520, "\u0120overlaps": 2521, "\u0120middle": 2522, "\u0120contin": 2523, "\u0120continu": 2524, "\u0120continuous": 2525, "\u0120LUPWDMY": 2526, "79": 2527, "\u0120lar": 2528, "\u0120larger": 2529, "\u0120Floating": 2530, "\u0120Square": 2531, "\u0120\u0120\u0120\u0120\u0120\u0120\u0120": 2532, "ary": 2533, "\u0120val": 2534, "LASH": 2535, "RVi": 2536, "\u0120XXX": 2537, "\u0120MID": 2538, "\u0120Single": 2539, "\u0120Inter": 2540, "utted": 2541, "49": 2542, "\u012024": 2543, "\u0120TCD": 2544, "095": 2545, "CBD": 2546, "\u012060": 2547, "lta": 2548, "inger": 2549, "rive": 2550, "drive": 2551, "\u0120WAIVE": 2552, "\u010a\u0120\u0120\u0120\u0120": 2553, "mi": 2554, "\u0120me": 2555, "\u0120Metals": 2556, "\u0120EC": 2557, "\u0120350000": 2558, "\u01202500000": 2559, "\u0120\u010a": 2560, "other": 2561, "ign": 2562, "RSTI": 2563, "LVT": 2564, "700": 2565, "\u0120ma": 2566, "\u0120BIB": 2567, "RMDMYAP": 2568, "pacit": 2569, "VERTEX": 2570, "\u0120capacit": 2571, "\u0120capacitor": 2572, "checked": 2573, "\u0120COOD": 2574, "UNSILICIDE": 2575, "COIN": 2576, "\u0120small": 2577, "\u0120int": 2578, "\u0120into": 2579, "\u0120HVNMOS": 2580, "42": 2581, "\u0120LDMOS": 2582, "NTNi": 2583, "ep": 2584, "Reinforced": 2585, "RF": 2586, "HPC": 2587, "ag": 2588, "\u0120ke": 2589, "\u0120keep": 2590, "\u0120sure": 2591, "\u0120make": 2592, "030": 2593, "\u0120SLR": 2594, "ant": 2595, "66": 2596, "ROM": 2597, "\u0120FEOL": 2598, "WA": 2599, "VTHP": 2600, "RECTCD": 2601, "BEOL": 2602, "RD": 2603, "\u0120SH": 2604, "\u0120SHRINK": 2605, "\u0120PSTP": 2606, "\u0120NWROD": 2607, "\u01202000": 2608, "\u0120210": 2609, "RDL": 2610, "\u0120delta": 2611, "\u0120BJTR": 2612, "UDMY": 2613, "\u0120comm": 2614, "\u0120NSTP": 2615, "\u010a\u0120\u0120\u0120\u0120\u0120\u0120\u0120\u0120\u0120\u0120\u0120\u0120\u0120\u0120\u0120\u0120\u0120\u0120\u0120": 2616, "ircuits": 2617, "8000": 2618, "mitter": 2619, "LOAT": 2620, "456": 2621, "450": 2622, "1518": 2623, "\u0120{{{{": 2624, "Fuse": 2625, "gal": 2626, "\u0120out": 2627, "LOATING": 2628, "Long": 2629, "\u0120)/": 2630, "Crt": 2631, "\u0120outside": 2632, "thes": 2633, "these": 2634, "minimum": 2635, "\u0120hig": 2636, "\u0120highe": 2637, "\u0120highest": 2638, "\u0120DECAPDMY": 2639, "\u0120.": 2640, "43": 2641, "\u0120part": 2642, "\u0120red": 2643, "\u0120Par": 2644, "\u0120Parallel": 2645, ")/(": 2646, "\u0120Merged": 2647, "\u0120Item": 2648, "\u0120ENDCAP": 2649, "\u0120COMB": 2650, "\u0120JOG": 2651, "oo": 2652, "ook": 2653, "enc": 2654, "ALOG": 2655, ".(": 2656, "\u0120align": 2657, "EXPc": 2658, "ENW": 2659, "\u0120NTNi": 2660, "oundary": 2661, "SRDOD": 2662, "\u010a\u010a\u010a\u010a\u010a": 2663, "cc": 2664, "\u0120Vt": 2665, "\u0120Myz": 2666, "\u0120260": 2667, "VIAy": 2668, "\u0120sur": 2669, "\u0120surround": 2670, "\u0120fa": 2671, "156": 2672, "CUPCB": 2673, "LDD": 2674, "\u0120vertical": 2675, "APRDL": 2676, "\u012080": 2677, "\u0120\u0120\u0120\u0120\u0120\u0120\u0120\u0120\u0120\u0120\u0120\u0120\u0120": 2678, "\u0120included": 2679, "\u0120gro": 2680, "\u0120group": 2681, "\u0120BiB": 2682, "\u0120ANA": 2683, "ility": 2684, "\u0120DVAR": 2685, "agger": 2686, "TN": 2687, "\u0120excep": 2688, "VIAz": 2689, "\u0120\u0120\u0120\u0120\u0120\u0120\u0120\u0120\u0120\u0120\u0120\u0120\u0120\u0120\u0120\u0120\u0120\u0120\u0120\u0120": 2690, "\u0120source": 2691, "PL": 2692, "1233": 2693, "ENGTE": 2694, "900": 2695, "\u0120900": 2696, "\u0120456": 2697, "\u012043000": 2698, "lock": 2699, "TP": 2700, "43000": 2701, "\u0120OTP": 2702, "\u0120HVOD": 2703, "\u0120DMxEXCL": 2704, "yout": 2705, "outerP": 2706, "layout": 2707, "innerP": 2708, "RFD": 2709, "RFDRAIN": 2710, "\u0120\u0120\u0120\u0120\u010a\u0120\u0120": 2711, "\u0120WBM": 2712, "045": 2713, "\u0120alignment": 2714, "\u0120marks": 2715, "\u0120coord": 2716, "\u0120coordin": 2717, "\u0120coordinate": 2718, "\u0120coordinates": 2719, "\u0120rules": 2720, "\u0120MetalFuse": 2721, "\u0120rotations": 2722, "\u0120block": 2723, "stagger": 2724, "CELL": 2725, "NWROD": 2726, "inside": 2727, "\u0120}": 2728, "\u010a\u0120\u010a": 2729, "ective": 2730, "\u0120NWRES": 2731, "COPO": 2732, "COP": 2733, "201": 2734, "\u0120prime": 2735, "TCH": 2736, "\u0120node": 2737, "ack": 2738, "For": 2739, "\u0120tape": 2740, "\u0120TS": 2741, "\u0120possible": 2742, "CUPVIAT": 2743, "DMyz": 2744, "FLOATING": 2745, "\u0120SPS": 2746, "space": 2747, "CONCA": 2748, "CONCAVE": 2749, "vid": 2750, "vidual": 2751, "SQ": 2752, "DMV": 2753, "\u0120\u0120\u0120\u010a": 2754, "\u0120~~": 2755, "\u0120COPO": 2756, "\u0120*!": 2757, "\u010a\u0120\u0120\u0120\u0120\u0120\u0120\u0120\u010a\u0120\u0120\u0120": 2758, "SRE": 2759, "\u0120indi": 2760, "\u0120individual": 2761, "\u0120BDTCDDN": 2762, "PITCH": 2763, "\u0120DVIAxR": 2764, "\u0120finger": 2765, "\u012035": 2766, "120": 2767, "\u0120Hole": 2768, "eri": 2769, "HVA": 2770, "84": 2771, "\u0120place": 2772, "\u0120existence": 2773, "\u0120come": 2774, "\u0120placement": 2775, "\u0120legal": 2776, "\u0120VTLNIO": 2777, "\u0120ASYM": 2778, "2000": 2779, "FHVMOM": 2780, "\u0120PRL": 2781, "\u0120underdrive": 2782, "\u0120reduce": 2783, "\u0120FLASH": 2784, "DACT": 2785, "\u0120Number": 2786, "lamp": 2787, "\u0120HIADMY": 2788, "\u0120up": 2789, "HVS": 2790, "\u010a\u0120\u0120\u0120\u0120\u0120\u0120\u0120\u0120\u0120\u0120\u0120\u0120\u0120\u0120\u0120\u0120\u0120\u0120\u0120\u0120\u0120\u0120\u0120": 2791, "105": 2792, "\u0120\u010a\u010a\u0120\u0120": 2793, "POS": 2794, "\u0120SA": 2795, "\u0120SAME": 2796, "thode": 2797, "'),": 2798, "76": 2799, "\u0120mes": 2800, "\u0120mesh": 2801, "regular": 2802, "ric": 2803, "\u012031": 2804, "150": 2805, "cri": 2806, "CG": 2807, "\u0120non": 2808, "\u0120CD": 2809, "\u0120MET": 2810, "Pad": 2811, "565": 2812, "026": 2813, "\u0120many": 2814, "VIAr": 2815, "\u0120HVPO": 2816, "aximun": 2817, "EPGTE": 2818, "VIAu": 2819, "\u0120PADi": 2820, "Circuits": 2821, "SHRINK": 2822, "Collector": 2823, "\u0120usage": 2824, "\u0120inj": 2825, "\u0120injector": 2826, "\u0120COPUSH": 2827, "sed": 2828, "VPO": 2829, "THIN": 2830, "\u0120LONGEDGE": 2831, "\u01204000": 2832, "COD": 2833, "4000": 2834, "\u0120DENSE": 2835, "SREZ": 2836, "ORTH": 2837, "LVMOS": 2838, "\u0120CDUDMY": 2839, "PADH": 2840, "\u0120Power": 2841, "\u0120Clamp": 2842, "HPL": 2843, "ESDIMP": 2844, "CBi": 2845, "BLK": 2846, "\u0120effective": 2847, "LONGEDGE": 2848, "\u0120100": 2849, "GATED": 2850, "BP": 2851, "\u0120short": 2852, "\u0120HIGH": 2853, "HVNW": 2854, "\u0120VTHNi": 2855, "\u0120VTHPi": 2856, "Boundary": 2857, "CHIPx": 2858, "\u0120\u0120\u010a\u010a\u0120": 2859, "\u0120across": 2860, "\u0120ES": 2861, "\u0120ESF": 2862, "\u0120sel": 2863, "SOU": 2864, "CODOD": 2865, "\u0120Flip": 2866, "\u0120mis": 2867, "\u0120VTULNi": 2868, "\u0120VTULPi": 2869, "pr": 2870, "\u0120CTMDMY": 2871, "critical": 2872, "39": 2873, "\u0120WBVIA": 2874, "\u0120RHDMY": 2875, "\u0120tile": 2876, "ump": 2877, "DVyz": 2878, "\u0120fu": 2879, "\u0120full": 2880, "ning": 2881, "apNTNi": 2882, "NCH": 2883, "olated": 2884, "gB": 2885, "gA": 2886, "VTLi": 2887, "MFUSE": 2888, "IPDMY": 2889, "\u0120VTLNi": 2890, "\u0120VTLPi": 2891, "ured": 2892, "oltage": 2893, "Ch": 2894, "\u0120\u0120\u0120\u0120\u0120\u0120\u010a\u0120\u0120": 2895, "\u0120RNWEL": 2896, "\u0120NC": 2897, "UTT": 2898, "NINDx": 2899, "BTSV": 2900, "\u0120FMONOS": 2901, "\u0120CBi": 2902, "WCL": 2903, "BIG": 2904, "otal": 2905, "\u0120DBO": 2906, "\u0120DBOC": 2907, "rtual": 2908, "asured": 2909, "Chip": 2910, "\u0120NOUSEM": 2911, "\u010a\u010a\u010a\u010a\u010a\u010a\u010a\u010a\u010a\u010a": 2912, "mm": 2913, "HPMLP": 2914, "refer": 2915, "\u0120identical": 2916, "Emitter": 2917, "ctangle": 2918, "\u0120virtual": 2919, "\u0120VARi": 2920, "\u0120Total": 2921, "ARK": 2922, "\u0120NCH": 2923, "\u0120HVPMOS": 2924, "ask": 2925, "arker": 2926, "\u0120200": 2927, "anced": 2928, "alanced": 2929, "CONNECTED": 2930, "HVPW": 2931, ")=": 2932, "ensitive": 2933, "arning": 2934, "More": 2935, "LONG": 2936, "61": 2937, "\u0120stack": 2938, "\u0120projection": 2939, "length": 2940, "48": 2941, "\u0120PRBOUNDARY": 2942, "RU": 2943, "67": 2944, "%.": 2945, "OVL": 2946, ")].": 2947, "\u0120NPOD": 2948, "\u0120CUPVIAT": 2949, "\u0120them": 2950, "\u0120ODiRFDRAIN": 2951, "LPP": 2952, "HC": 2953, "DMxy": 2954, "\u0120NSD": 2955, "oriz": 2956, "orizon": 2957, "orizontal": 2958, "SDI": 2959, "\u0120\u0120\u0120\u0120\u0120\u0120\u0120\u010a\u010a\u0120\u0120": 2960, "\u0120{{{{{{": 2961, "\u0120selected": 2962, "\u0120filling": 2963, "\u0120UBMi": 2964, "\u0120TRU": 2965, "\u0120TRUNC": 2966, "\u0120TRUNCATE": 2967, "\u0120METAL": 2968, "umx": 2969, "ential": 2970, "\u0120valu": 2971, "\u0120value": 2972, "\u0120pot": 2973, "\u0120PSD": 2974, "\u0120CHVT": 2975, "ctly": 2976, "LVTi": 2977, "\u0120potential": 2978, "\u0120horizontal": 2979, "\u0120NOUSEV": 2980, "\u0120NWRSTI": 2981, "gU": 2982, "LOX": 2983, "108": 2984, "\u01208000": 2985, "MW": 2986, ")],": 2987, "\u0120par": 2988, "\u0120neare": 2989, "\u0120nearest": 2990, "im": 2991, "RPDMY": 2992, "\u0120NPi": 2993, "\u0120HVMOS": 2994, "\u0120fi": 2995, "\u0120Tol": 2996, "\u0120Toler": 2997, "\u0120Tolerant": 2998, "\u0120EFUSE": 2999, "PPI": 3000, "\u0120SPI": 3001, "\u0120SPICE": 3002, "\u0120he": 3003, "OX": 3004, "\u0120\u0120\u010a\u010a\u010a\u0120": 3005, "tic": 3006, "USE": 3007, "\u0120lon": 3008, "\u0120longer": 3009, "\u0120BTSV": 3010, "SOURC": 3011, "SOURCE": 3012, "\u0120DGATE": 3013, "\u0120brea": 3014, "\u0120breach": 3015, "CBDi": 3016, "\u0120lower": 3017, "\u0120Rect": 3018, "\u0120HVOX": 3019, "ight": 3020, "\u0120VTUHPi": 3021, "\u0120VTUHNi": 3022, "\u0120DCO": 3023, "\u0120balanced": 3024, "\u0120another": 3025, "dmy": 3026, "SERI": 3027, "SERIES": 3028, "\u0120VTZ": 3029, "\u0120ANALOG": 3030, "78": 3031, "\u0120SINGLE": 3032, "\u0120650000": 3033, "\u0120DEF": 3034, "node": 3035, "ULP": 3036, "STACK": 3037, "PSTP": 3038, "COUNT": 3039, "\u0120turned": 3040, "\u0120POC": 3041, "\u0120Poly": 3042, "\u0120CAP": 3043, "\u0120CAPDMY": 3044, "DENSITY": 3045, "\u0120voltage": 3046, "SK": 3047, "\u0120154": 3048, "POFUSE": 3049, "NOCAP": 3050, "atch": 3051, "Maximum": 3052, "\u0120butted": 3053, "athode": 3054, "\u0120followed": 3055, "\u0120directly": 3056, "\u0120[(": 3057, "\u0120PWEL": 3058, "\u0120CG": 3059, "measured": 3060, "TENT": 3061, "EXTENT": 3062, "\u0120RW": 3063, "\u0120k": 3064, "Ax": 3065, ".,": 3066, "\u0120GL": 3067, "\u0120DNWi": 3068, "\u0120*(": 3069, "BR": 3070, "\u010a\u0120\u0120\u0120\u0120\u010a\u0120": 3071, "uide": 3072, "uideline": 3073, "ticle": 3074, "57": 3075, "\u0120possibility": 3076, "\u0120particle": 3077, "\u0120guideline": 3078, "\u0120cau": 3079, "\u0120caused": 3080, "drain": 3081, "ICK": 3082, "\u0120ran": 3083, "\u0120range": 3084, "\u0120SK": 3085, "\u0120SKIP": 3086, "\u0120PPOD": 3087, "\u0120Other": 3088, "cided": 3089, "\u0120mask": 3090, "\u0120ANT": 3091, "tili": 3092, "SHO": 3093, "\u0120MFUSELINK": 3094, "\u0120FHVMOM": 3095, "VIRTU": 3096, "VIRTUAL": 3097, "VOD": 3098, "\u0120Vx": 3099, "REAL": 3100, "')": 3101, "ymm": 3102, "ymmet": 3103, "ymmetric": 3104, "\u0120POcc": 3105, "\u0120HVBJT": 3106, "RECVIA": 3107, "\u012010700": 3108, "10700": 3109, "\u0120sol": 3110, "\u0120({": 3111, "NWDMY": 3112, "\u0120SP": 3113, "\u0120THIN": 3114, "}.": 3115, "\u0120ox": 3116, "\u0120oxide": 3117, "\u0120addition": 3118, "\u0120ODW": 3119, "\u0120FUSE": 3120, "\u0120FUSELINK": 3121, "NDEF": 3122, "IFNDEF": 3123, "\u0120isolation": 3124, "\u0120Ac": 3125, "\u0120stacked": 3126, "\u0120RPOi": 3127, "SHK": 3128, "\u0120All": 3129, "\u0120sili": 3130, "\u0120file": 3131, "\u0120exp": 3132, "\u0120command": 3133, "\u0120ODWR": 3134, "\u0120MFU": 3135, "ic": 3136, "\u0120silicided": 3137, "\u0120\u0120\u0120\u0120\u0120\u0120\u010a\u0120": 3138, "\u0120themse": 3139, "\u0120themsel": 3140, "\u0120themselve": 3141, "\u0120themselves": 3142, "\u0120solid": 3143, "\u0120customers": 3144, "\u0120acc": 3145, "\u0120ODiSRAM": 3146, "TYP": 3147, "TYPE": 3148, "TATYPE": 3149, "TDMY": 3150, "DA": 3151, "DATATYPE": 3152, "COPY": 3153, "\u0120kind": 3154, "ODPO": 3155, "46": 3156, "\u0120drawing": 3157, "OGIC": 3158, "BOND": 3159, "\u0120WI": 3160, "\u0120WIRE": 3161, "\u0120Cap": 3162, "LUPWDMY": 3163, "\u0120COii": 3164, ".]": 3165, "\u0120(((((": 3166, "NPO": 3167, "\u0120FCDMY": 3168, "NV": 3169, "022": 3170, "\u0120Rectangular": 3171, "002": 3172, "\u0120FOD": 3173, "NSTP": 3174, "81": 3175, "\u0120common": 3176, "400": 3177, "\u0120With": 3178, "MR": 3179, "\u0120filled": 3180, "\u0120600000": 3181, "\u0120400": 3182, "xc": 3183, "HVMOS": 3184, "\u0120utili": 3185, "\u0120pack": 3186, "\u0120package": 3187, "\u0120imp": 3188, "\u0120Re": 3189, "ative": 3190, "\u0120bump": 3191, "\u0120TSV": 3192, "\u0120Source": 3193, "\u0120COR": 3194, "122": 3195, "\u0120project": 3196, "\u0120od": 3197, "\u0120odd": 3198, "\u0120height": 3199, "\u0120face": 3200, "\u0120faces": 3201, "\u0120excepted": 3202, "\u0120abutted": 3203, "\u0120TypeH": 3204, "\u0120TypeHook": 3205, "\u0120TypeC": 3206, "\u0120Middle": 3207, "\u0120Hook": 3208, "\u0120Cu": 3209, "\u0120Com": 3210, "\u0120Comb": 3211, "\u0120CIC": 3212, "\u0120BP": 3213, "\u0120Another": 3214, "\u010a\u0120\u0120\u010a\u0120\u0120\u0120\u010a\u0120": 3215, "marker": 3216, "Ws": 3217, "Wc": 3218, "THICK": 3219, "THICKN": 3220, "THICKNES": 3221, "THICKNESS": 3222, "MFU": 3223, "\u0120BIG": 3224, "region": 3225, "inal": 3226, "SQVIA": 3227, "\u0120inters": 3228, "\u0120SEN": 3229, "\u0120valid": 3230, "\u0120validation": 3231, "\u0120final": 3232, "\u0120Gate": 3233, "\u01201000": 3234, "ISODMY": 3235, "DVIAx": 3236, "89": 3237, ");": 3238, "MARK": 3239, "HVI": 3240, "\u0120tone": 3241, "\u0120rever": 3242, "\u0120reverse": 3243, "\u012083": 3244, "\u010a\u0120\u0120\u0120\u0120\u0120\u0120\u0120\u0120\u0120\u0120\u0120\u0120\u0120\u0120\u0120\u0120\u0120\u0120": 3245, "lot": 3246, "IOPAD": 3247, "\u0120slot": 3248, "\u0120put": 3249, "Drain": 3250, "NECT": 3251, "CONNECT": 3252, "\u0120SB": 3253, "\u0120Empty": 3254, "\u0120CUPCB": 3255, "FVIA": 3256, "\u0120octangle": 3257, "tre": 3258, "UTMDMY": 3259, "\u0120PMi": 3260, "STOR": 3261, "SISTOR": 3262, "RESISTOR": 3263, "(!!": 3264, "\u0120structures": 3265, "\u0120CBDi": 3266, "\u0120NCapNTNi": 3267, "\u0120COiSRAM": 3268, "\u0120((((": 3269, "\u0120power": 3270, "\u0120mVTLi": 3271, "\u0120found": 3272, "\u0120dup": 3273, "\u0120duplic": 3274, "\u0120duplicate": 3275, "\u0120RFIPDMY": 3276, "\u0120POiSRAM": 3277, "\u0120Must": 3278, "square": 3279, "edgeM": 3280, "SPS": 3281, "PPi": 3282, "NPi": 3283, "LC": 3284, "DVxy": 3285, "\u0120intersect": 3286, "NWRSTI": 3287, "Mn": 3288, "\u0120intersecting": 3289, "\u0120accord": 3290, "\u0120according": 3291, "VMIN": 3292, "VMAX": 3293, "RST": 3294, "OND": 3295, "ECOND": 3296, "\u0120POn": 3297, "\u0120CTC": 3298, "Rule": 3299, "\u0120VTLNIOi": 3300, "\u0120SENDMY": 3301, "375": 3302, "UDM": 3303, "\u0120mini": 3304, "\u0120minimun": 3305, "\u0120exception": 3306, "\u0120Opp": 3307, "\u0120Oppo": 3308, "\u0120Opposite": 3309, "\u0120COWR": 3310, "\u010a\u0120\u0120\u0120\u010a\u010a\u0120\u0120": 3311, "maximun": 3312, "NR": 3313, "DOT": 3314, "DFM": 3315, "044": 3316, ")}}": 3317, "\u0120REAL": 3318, "PCL": 3319, "MASK": 3320, "\u0120Regular": 3321, "DRAIN": 3322, "\u0120wan": 3323, "\u0120wants": 3324, "\u0120var": 3325, "ENDCAP": 3326, "):": 3327, "\u0120placed": 3328, "mid": 3329, "ANA": 3330, "\u0120utility": 3331, "\u0120along": 3332, "\u0120NWLVTi": 3333, "TERM": 3334, "MF": 3335, "\u0120To": 3336, "\u0120MA": 3337, "old": 3338, "\u0120violated": 3339, "\u0120comp": 3340, "\u0120comply": 3341, "\u0120RMDMYAP": 3342, "\u0120AVTP": 3343, "sem": 3344, "semb": 3345, "sembly": 3346, "CK": 3347, "\u0120flip": 3348, "\u0120Un": 3349, "\u0120layout": 3350, "\u0120NWii": 3351, "\u012050000": 3352, "\u0120old": 3353, "nco": 3354, "445": 3355, "\u0120Pad": 3356, "}.)": 3357, "RMDMYn": 3358, "\u0120\u0120\u0120\u0120\u010a\u0120\u0120\u0120": 3359, "\u0120native": 3360, "\u0120POEN": 3361, "PERIMETER": 3362, "center": 3363, "\u0120LMARK": 3364, "\u0120eHVT": 3365, "\u0120anode": 3366, "\u0120leak": 3367, "\u0120leakage": 3368, "\u0120PATH": 3369, "505": 3370, "\u0120potentials": 3371, "\u0120contact": 3372, "WRV": 3373, "\u0120ground": 3374, "treme": 3375, "\u0120Dummy": 3376, "thod": 3377, "TO": 3378, "NA": 3379, "\u0120BUTT": 3380, "\u0120As": 3381, "opposite": 3382, "HOC": 3383, "\u0120marker": 3384, "\u0120HVPW": 3385, "int": 3386, "175": 3387, ")(": 3388, "\u0120\u0120\u0120\u0120\u0120\u0120\u0120\u010a\u0120\u0120": 3389, "\u0120DEFINE": 3390, "\u0120CORE": 3391, "\u010a\u010a\u010a\u010a\u010a\u010a\u010a": 3392, "sensitive": 3393, "MOD": 3394, "LDN": 3395, "99": 3396, "\u0120star": 3397, "\u0120starts": 3398, "\u0120Excep": 3399, "\u0120Exception": 3400, "NIND": 3401, "\u0120surrounded": 3402, "\u0120ODxc": 3403, "\u0120ODs": 3404, "diff": 3405, "GATEc": 3406, "FOD": 3407, "CSRBIB": 3408, "455": 3409, "\u0120collector": 3410, "ltra": 3411, "def": 3412, "LDP": 3413, "\u0120user": 3414, "\u012075": 3415, "single": 3416, "\u0120using": 3417, "\u0120ultra": 3418, "\u0120TSMC": 3419, "sure": 3420, "so": 3421, "ory": 3422, "EDG": 3423, "235": 3424, "\u0120strong": 3425, "\u0120strongly": 3426, "\u0120COG": 3427, "actor": 3428, "RNG": 3429, "ANAPO": 3430, "6500": 3431, "\u0120shape": 3432, "\u0120mm": 3433, "\u0120RR": 3434, "ANALOG": 3435, "\u0120SC": 3436, "\u0120CMy": 3437, "\u0120CMx": 3438, "\u012037": 3439, "PPIi": 3440, "EPSD": 3441, "\u0120COEN": 3442, "017": 3443, "must": 3444, "PLUS": 3445, "ODY": 3446, "BODY": 3447, "\u0120TRI": 3448, "\u0120NWR": 3449, "own": 3450, "datatype": 3451, "SQR": 3452, "GC": 3453, "\u012055": 3454, "ecommendation": 3455, "Recommendation": 3456, "\u0120varactor": 3457, "\u0120y": 3458, "bility": 3459, "\u0120open": 3460, "\u0120VIAT": 3461, "PCH": 3462, "\u0120point": 3463, "\u0120mode": 3464, "\u0120model": 3465, "\u0120CRAM": 3466, "82": 3467, "\u0120SSD": 3468, "\u0120ERROR": 3469, "\u0120AR": 3470, "\u0120ARRAY": 3471, "\u0120IMP": 3472, "ew": 3473, ")}.": 3474, "\")-": 3475, "\u0120Drain": 3476, "\u0120CSRmust": 3477, "\u0120UTMDMY": 3478, "\u0120rel": 3479, "\u0120relia": 3480, "\u0120reliability": 3481, "\u0120proh": 3482, "\u0120prohi": 3483, "\u0120prohib": 3484, "\u0120applications": 3485, "090": 3486, "\u0120prohibi": 3487, "\u0120prohibited": 3488, "\u0120dimension": 3489, "\u0120die": 3490, "\u0120TRIGGER": 3491, "\u0120Maximun": 3492, "PAnode": 3493, "NCathode": 3494, "\u0120warning": 3495, "\u0120sim": 3496, "\u0120Pro": 3497, "\u0120Protection": 3498, "close": 3499, "Mb": 3500, "match": 3501, "Peri": 3502, "DVAR": 3503, "\u0120rings": 3504, "\u0120mismatch": 3505, "\u0120mem": 3506, "\u0120memory": 3507, "\u0120enclose": 3508, "\u0120ODS": 3509, "}}.": 3510, "xx": 3511, "ose": 3512, "KA": 3513, "GR": 3514, "\u0120ODWLOX": 3515, "PODOD": 3516, "Not": 3517, "052": 3518, "\u0120types": 3519, "\u0120ade": 3520, "\u0120adequ": 3521, "\u0120adequate": 3522, "The": 3523, "PRE": 3524, "\u0120PODN": 3525, "type": 3526, "RED": 3527, "OC": 3528, "MFE": 3529, "MFERED": 3530, "DBOC": 3531, "CSRDMY": 3532, "CHA": 3533, "CHAMFERED": 3534, "\u0120surrounding": 3535, "\u0120DI": 3536, "\u012028": 3537, "URT": 3538, "SHOURT": 3539, "SLDD": 3540, "POs": 3541, "ODs": 3542, "\u012040": 3543, "RFDMY": 3544, "\u0120bu": 3545, "\u0120PCH": 3546, "\u0120FDI": 3547, "\u0120CEN": 3548, "\u0120CENTE": 3549, "\u0120CENTERS": 3550, "un": 3551, "COPUSH": 3552, "\u0120conc": 3553, "\u0120Warning": 3554, "\u012038": 3555, "VTULNi": 3556, "VTULPi": 3557, "VTLNi": 3558, "VTLPi": 3559, "DECAPDMY": 3560, "CHVT": 3561, "\u0120\u0120\u0120\u0120\u0120\u0120\u010a\u010a\u0120": 3562, "\u0120unB": 3563, "\u0120unBal": 3564, "\u0120nets": 3565, "\u0120cells": 3566, "\u0120buffer": 3567, "\u0120also": 3568, "\u0120LBR": 3569, "VTZ": 3570, "POVER": 3571, "ILP": 3572, "77": 3573, "014": 3574, "}[": 3575, "VOLTAGE": 3576, "\u0120Unit": 3577, "VNV": 3578, "NPOD": 3579, "LLECT": 3580, "995": 3581, "\u0120POR": 3582, "\u0120DIE": 3583, "tact": 3584, "rap": 3585, "exp": 3586, "apNTN": 3587, "SHAP": 3588, "SHAPE": 3589, "INAL": 3590, "FINAL": 3591, "ENSD": 3592, "\u0120[!(": 3593, "\u0120FESF": 3594, "\u0120DVPA": 3595, "\u0120DVPARAM": 3596, "\u0120DVPARAMS": 3597, "\u0120ANNOTATE": 3598, "\u010a\u010a\u010a\u010a\u010a\u0120": 3599, "sid": 3600, "anding": 3601, "VTHNi": 3602, "VTHPi": 3603, "TAL": 3604, "RIZ": 3605, "RIZON": 3606, "RIZONTAL": 3607, "OTP": 3608, "NWii": 3609, "HORIZONTAL": 3610, "BUTT": 3611, "\u0120{((": 3612, "\u010a\u0120\u0120\u0120\u0120\u0120\u0120\u0120\u0120\u0120\u0120\u0120": 3613, "{@": 3614, "\u0120you": 3615, "\u0120ensure": 3616, "\u0120cur": 3617, "\u0120curr": 3618, "\u0120current": 3619, "VTLNIO": 3620, "LTA": 3621, "\u0120(>=": 3622, "Core": 3623, "DGATE": 3624, "\u0120Collector": 3625, "lap": 3626, "erlap": 3627, "Overlap": 3628, "0012": 3629, "\u0120opening": 3630, "\u0120long": 3631, "VIAxR": 3632, "\u0120follows": 3633, "\u0120NXXHPL": 3634, "In": 3635, "225": 3636, "\u0120rela": 3637, "\u0120relative": 3638, "\u0120Vias": 3639, "eld": 3640, "PNP": 3641, "FMONOS": 3642, "\u0120per": 3643, "\u0120identically": 3644, "SC": 3645, "ODRES": 3646, "FLASH": 3647, "\u0120devices": 3648, "\u0120Figure": 3649, "ting": 3650, "PHVNW": 3651, "PHVNWHVPW": 3652, "\u0120method": 3653, "\u0120error": 3654, "\u0120connn": 3655, "COi": 3656, "POC": 3657, "\u0120\u0120\u0120\u010a\u0120\u0120\u0120": 3658, "cy": 3659, "Metal": 3660, "\u0120STD": 3661, "\u0120FI": 3662, "\u0120accu": 3663, "\u0120accura": 3664, "\u0120accuracy": 3665, "\u0120LOGIC": 3666, "\u0120ABS": 3667, "\"))": 3668, "\u0120specifi": 3669, "\u0120specific": 3670, "\u0120seri": 3671, "\u0120series": 3672, "\u0120landing": 3673, "\u0120connnected": 3674, "\u0120ECC": 3675, "\u0120DACTG": 3676, "ANT": 3677, "\u0120comple": 3678, "\u0120complete": 3679, "\u0120ODIMP": 3680, "\u012039": 3681, "FESF": 3682, "\u0120pick": 3683, "\u0120HBL": 3684, "HER": 3685, "FUSELINK": 3686, "DNWi": 3687, "\u0120Nf": 3688, "\u0120CTMFINAL": 3689, "pend": 3690, "lief": 3691, "OTHER": 3692, "\u0120equi": 3693, "\u0120LONGP": 3694, "\u0120Butted": 3695, "ken": 3696, "by": 3697, "butted": 3698, "Vc": 3699, "INEN": 3700, "EXG": 3701, "BEDGE": 3702, "\u0120\u010a\u0120\u0120\u010a\u0120": 3703, "\u0120overdrive": 3704, "\u012014": 3705, "\u0120(((((((": 3706, "default": 3707, "OTHERS": 3708, "CDU": 3709, "\u0120those": 3710, "\u0120tapeout": 3711, "\u0120taken": 3712, "\u0120shi": 3713, "\u0120mean": 3714, "\u0120fab": 3715, "\u0120fabric": 3716, "\u0120fabrication": 3717, "\u0120explic": 3718, "\u0120explicit": 3719, "\u0120explicitly": 3720, "\u0120expla": 3721, "\u0120explain": 3722, "\u0120equiv": 3723, "\u0120equival": 3724, "\u0120equivalent": 3725, "\u0120consid": 3726, "\u0120consider": 3727, "\u0120considers": 3728, "\u0120conside": 3729, "\u0120considered": 3730, "\u0120cre": 3731, "\u0120create": 3732, "\u0120care": 3733, "\u0120WS": 3734, "\u0120ODcc": 3735, "\u0120Extreme": 3736, "\u0120COMerged": 3737, "\u0120CI": 3738, "\u0120eng": 3739, "\u0120engine": 3740, "\u0120engineer": 3741, "union": 3742, "umX": 3743, "sa": 3744, "mVTLi": 3745, "effEDGE": 3746, "WBDMY": 3747, "VTN": 3748, "VARi": 3749, "RPOi": 3750, "RHDMY": 3751, "RFIPDMY": 3752, "ODiSRAM": 3753, "ODiRFDRAIN": 3754, "NCapNTNi": 3755, "HIADMY": 3756, "CDUDMY": 3757, "\u0120offer": 3758, "\u0120bits": 3759, "\u0120POLYc": 3760, "\u0120Node": 3761, "\u0120Active": 3762, "tacts": 3763, "ise": 3764, "SAME": 3765, "MG": 3766, "Contacts": 3767, "\u0120clu": 3768, "\u0120clus": 3769, "\u0120cluster": 3770, "\u0120EMOD": 3771, "exc": 3772, "62": 3773, "\u0120thick": 3774, "\u0120emitter": 3775, "\u010a\u0120\u0120\u0120\u0120\u0120\u0120\u0120\u0120\u0120\u0120\u0120\u0120\u0120\u0120\u0120\u0120\u0120\u0120\u0120\u0120": 3776, "\u0120well": 3777, "\u0120allow": 3778, "\u0120NPWR": 3779, "\u0120NCapNTN": 3780, "holex": 3781, "finger": 3782, "Space": 3783, "PADDMY": 3784, "MFUSELINK": 3785, "LCSP": 3786, "EFPVIA": 3787, "EFUSE": 3788, "\u0120li": 3789, "\u0120HVN": 3790, "WD": 3791, "ANGLED": 3792, "\u010a\u010a\u010a\u010a\u010a\u010a\u010a\u010a": 3793, "VTUHPi": 3794, "VTUHNi": 3795, "VTLNIOi": 3796, "NPN": 3797, "NHVPW": 3798, "NHVPWDNW": 3799, "1517": 3800, "%)": 3801, "\u0120oper": 3802, "\u0120Assembly": 3803, "\u0120HP": 3804, "}}}": 3805, "\u0120match": 3806, "\u0120matching": 3807, "\u0120SRD": 3808, "\u0120RECVIA": 3809, "\u0120PWELi": 3810, "xi": 3811, "PLDD": 3812, "LDMOS": 3813, "DS": 3814, "ANC": 3815, "\u0120Bal": 3816, "SCO": 3817, "DCO": 3818, "\u0120HR": 3819, "\u0120155": 3820, "NLDD": 3821, "1833": 3822, "1825": 3823, "1317": 3824, "\u0120WIDE": 3825, "\u0120FVIA": 3826, "\u0120cathode": 3827, "\u0120GDS": 3828, "diode": 3829, "MONOS": 3830, "LOGIC": 3831, "FCDMY": 3832, "Figure": 3833, "DISCONNECT": 3834, "910": 3835, "\u0120circuits": 3836, "ISOR": 3837, "\u0120Th": 3838, "\u0120HBC": 3839, "rectangle": 3840, "fter": 3841, "UTM": 3842, "PC": 3843, "PCathode": 3844, "NAnode": 3845, "\u0120peri": 3846, "\u0120Vpp": 3847, "ab": 3848, "RTO": 3849, "METAL": 3850, "\u0120stre": 3851, "\u0120stress": 3852, "\u0120SECOND": 3853, "\u0120FIRST": 3854, "YNC": 3855, "SHORT": 3856, "SECOND": 3857, "LOCK": 3858, "HVOD": 3859, "FIRST": 3860, "BLOCK": 3861, "\u0120stand": 3862, "\u0120size": 3863, "\u0120relief": 3864, "\u0120define": 3865, "\u0120after": 3866, "inter": 3867, "down": 3868, "COS": 3869, "\u0120spaces": 3870, "\u0120perpend": 3871, "\u0120perpendic": 3872, "\u0120perpendicular": 3873, "\u0120impl": 3874, "\u0120implant": 3875, "\u0120ODBLK": 3876, "\u012017": 3877, "389": 3878, "\u0120crossing": 3879, "\u0120STI": 3880, "\u0120RTO": 3881, "\u0120FHVPO": 3882, "\u0120CM": 3883, "\u0120DP": 3884, "ub": 3885, "including": 3886, "XN": 3887, "Width": 3888, "UXN": 3889, "MUXN": 3890, "297": 3891, "192": 3892, "\u0120140": 3893, "ds": 3894, "POLYIM": 3895, "POLYIMIDE": 3896, "\u0120WOW": 3897, "\u0120RRDMY": 3898, "\u0120EMB": 3899, "ail": 3900, "UMP": 3901, "NWLVTi": 3902, "\u0120det": 3903, "\u0120detail": 3904, "\u0120details": 3905, "\u0120FMONOSCELL": 3906, "\u0120DSTP": 3907, "\u0120Core": 3908, "\u0120Bump": 3909, "NSCH": 3910, "\u0120tran": 3911, "\u0120trans": 3912, "\u0120transistor": 3913, "\u0120MONOS": 3914, "|><|": 3915, "ze": 3916, "size": 3917, "ogn": 3918, "ink": 3919, "ching": 3920, "SIZING": 3921, "OMARK": 3922, "NOMARK": 3923, "EFHV": 3924, "154": 3925, "\u0120gds": 3926, "\u0120EGTE": 3927, "\u0120swi": 3928, "\u0120swit": 3929, "\u0120switch": 3930, "\u0120near": 3931, "\u0120POBLK": 3932, "\u0120Is": 3933, "der": 3934, "WS": 3935, "ROW": 3936, "LS": 3937, "GL": 3938, "COOD": 3939, "\u0120missed": 3940, "\u0120induce": 3941, "\u0120fail": 3942, "\u0120checker": 3943, "\u0120back": 3944, "\u0120POW": 3945, "\u0120LINEN": 3946, "\u0120GATEP": 3947, "\u0120DEP": 3948, "form": 3949, "RRAM": 3950, "MI": 3951, "MISS": 3952, "GATEW": 3953, "Cu": 3954, "\u0120general": 3955, "\u0120around": 3956, "\u0120VOLTAGES": 3957, "\u0120FDIR": 3958, "\u0120DEFA": 3959, "\u0120DEFAUL": 3960, "\u0120DEFAULT": 3961, "\u0120APB": 3962, "\u0120166": 3963, "POBLK": 3964, "NOTCHECK": 3965, "CRAM": 3966, "59": 3967, "\u0120effRegion": 3968, "\u0120GATEN": 3969, "core": 3970, "WLOX": 3971, "\u0120simula": 3972, "\u0120simulation": 3973, "\u0120shapes": 3974, "\u0120sM": 3975, "\u0120circu": 3976, "\u0120circuit": 3977, "\u0120GATEW": 3978, "\u0120DELTA": 3979, "\u0120COS": 3980, "\u0120COM": 3981, "\u0120Cell": 3982, "WOS": 3983, "WOSLDB": 3984, "POiSRAM": 3985, "PATH": 3986, "Marker": 3987, "ELOW": 3988, "DSTP": 3989, "COiSRAM": 3990, "0115": 3991, "\u0120Use": 3992, "\u0120SYM": 3993, "\u0120NOG": 3994, "\u0120NOGT": 3995, "\u0120High": 3996, "\u0120%": 3997, "\u010a\u0120\u0120\u010a\u010a\u0120": 3998, "meter": 3999, "hv": 4000, "UBMi": 4001, "COii": 4002, "\u0120std": 4003, "\u0120miss": 4004, "\u0120missing": 4005, "\u0120few": 4006, "\u0120fewer": 4007, "\u0120FLA": 4008, "SEN": 4009, "NFD": 4010, "HBC": 4011, "\u0120thin": 4012, "\u0120standard": 4013, "\u0120polygons": 4014, "\u0120fir": 4015, "\u0120first": 4016, "\u0120WAIVED": 4017, "\u0120WLCSP": 4018, "\u0120RHWR": 4019, "\u0120Ne": 4020, "\u0120Neighboring": 4021, "\u0120NON": 4022, "\u0120LB": 4023, "\u0120EPMOS": 4024, "\u0120ENMOS": 4025, "\u0120EN": 4026, "\u0120CMs": 4027, "\u0120BAR": 4028, "ules": 4029, "rules": 4030, "VA": 4031, "Ry": 4032, "Rx": 4033, "EDGEx": 4034, "CMx": 4035, "\u0120rem": 4036, "\u0120noise": 4037, "\u0120NV": 4038, "\u0120COx": 4039, "RHODR": 4040, "HBL": 4041, "CI": 4042, "BESIDE": 4043, "AVTP": 4044, "\u0120set": 4045, "\u0120oc": 4046, "\u0120occu": 4047, "\u0120occur": 4048, "\u0120occurred": 4049, "\u0120inc": 4050, "\u0120Isolated": 4051, "CTC": 4052, "64": 4053, "\u0120order": 4054, "\u0120USE": 4055, "\u0120NEVER": 4056, "\u0120MSLDD": 4057, "prBoundary": 4058, "imide": 4059, "MO": 4060, "\u0120like": 4061, "\u0120VNV": 4062, "92": 4063, "\u0120recogn": 4064, "\u0120Symmetric": 4065, "\u01201815": 4066, "oco": 4067, "nN": 4068, "nNoco": 4069, "TEN": 4070, "\u0120setting": 4071, "\u0120recogniz": 4072, "\u0120recognized": 4073, "\u0120perimeter": 4074, "\u0120operat": 4075, "\u0120operating": 4076, "\u0120concer": 4077, "\u0120Turn": 4078, "\u0120Turns": 4079, "\u0120RO": 4080, "\u0120RODMY": 4081, "\u0120NWLVT": 4082, "\u012064": 4083, "item": 4084, "ft": 4085, "]>=": 4086, "Sensitive": 4087, "DF": 4088, "\u0120union": 4089, "\u0120RPDMYai": 4090, "\u0120MG": 4091, "\u0120FMONOSDMY": 4092, "\u0120BE": 4093, "OUTSIDE": 4094, "LB": 4095, "\u0120RCG": 4096, "\u0120RCGC": 4097, "FMO": 4098, "\u0120ext": 4099, "\u0120SZ": 4100, "\u01201812": 4101, "\u0120log": 4102, "\u0120[{": 4103, "\u0120WLD": 4104, "\u0120COLLECT": 4105, "ZMOS": 4106, "VIAyz": 4107, "Ui": 4108, "TOPDMY": 4109, "\u0120assembly": 4110, "\u0120il": 4111, "\u0120ille": 4112, "\u0120illegal": 4113, "GBi": 4114, "GATEP": 4115, "\u0120covers": 4116, "\u0120Prime": 4117, "##": 4118, "\u0120strap": 4119, "\u0120extend": 4120, "\u0120WRV": 4121, "WLP": 4122, "St": 4123, "LBR": 4124, "Ac": 4125, "\u0120RVB": 4126, "\u0120Non": 4127, "\u0120pickup": 4128, "\u0120boundary": 4129, "\u0120Rec": 4130, "\u0120LVF": 4131, "inkOPC": 4132, "RPODIODE": 4133, "POLYc": 4134, "NTAP": 4135, "LinkOPC": 4136, "LIP": 4137, "HVBJT": 4138, "\u0120Asymmetric": 4139, "\u0120##": 4140, "erv": 4141, "WC": 4142, "ODS": 4143, "NWRES": 4144, "GATEN": 4145, "69": 4146, "\u0120diff": 4147, "\u0120diffu": 4148, "\u0120diffusion": 4149, "\u0120RED": 4150, "\u0120REDU": 4151, "\u0120REDUND": 4152, "\u0120REDUNDANC": 4153, "\u0120REDUNDANCY": 4154, "\u0120RU": 4155, "\u0120RULE": 4156, "\u0120NONWR": 4157, "\u0120IMPLE": 4158, "\u0120IMPLEM": 4159, "\u0120IMPLEMEN": 4160, "\u0120IMPLEMENTA": 4161, "\u0120IMPLEMENTATION": 4162, "\u0120GUIDE": 4163, "\u0120GUIDELINE": 4164, "\u0120EMBED": 4165, "\u0120EMBEDDED": 4166, "eal": 4167, "Strap": 4168, "RP": 4169, "LT": 4170, "FUTM": 4171, "EXGATE": 4172, "\u0120simult": 4173, "\u0120simultan": 4174, "\u0120simultane": 4175, "\u0120SEALRINGi": 4176, "\u0120RPODIODE": 4177, "ave": 4178, "RPOx": 4179, "FDI": 4180, "COLLECT": 4181, "\u0120concave": 4182, "\u0120UTMDMYx": 4183, "\u0120FMOD": 4184, "\u0120\\": 4185, "ral": 4186, "entral": 4187, "UH": 4188, "\u0120redund": 4189, "\u0120ODn": 4190, "PMi": 4191, "FPO": 4192, "BA": 4193, "\u0120shown": 4194, "\u0120numbers": 4195, "\u0120nearby": 4196, "\u0120interacts": 4197, "\u0120fingers": 4198, "\u0120extreme": 4199, "\u0120123": 4200, "leg": 4201, "RAL": 4202, "NCHK": 4203, "ENTRAL": 4204, "EG": 4205, "\u0120sha": 4206, "\u0120share": 4207, "\u0120import": 4208, "\u0120important": 4209, "\u0120CGPOVER": 4210, "\u0120Bes": 4211, "interact": 4212, "STD": 4213, "NONWR": 4214, "Error": 4215, "696": 4216, "\u0120means": 4217, "\u0120interconnect": 4218, "\u0120ev": 4219, "\u0120even": 4220, "\u0120Ever": 4221, "\u0120Every": 4222, "\u0120Beside": 4223, "\u0120Besides": 4224, "rian": 4225, "NACTx": 4226, "EMOD": 4227, "BOT": 4228, "135": 4229, "-,": 4230, "\u0120shield": 4231, "\u0120eHVTP": 4232, "\u0120equ": 4233, "\u0120equal": 4234, "\u0120better": 4235, "\u01202533": 4236, "\u01202518": 4237, "ls": 4238, "71": 4239, "\u0120vice": 4240, "\u0120versa": 4241, "\u0120fPOLY": 4242, "\u0120extending": 4243, "\u0120diffusions": 4244, "\u0120FLOATING": 4245, "\u0120BER": 4246, "RHPOR": 4247, "PTAP": 4248, "ODBLK": 4249, "Float": 4250, "EXGS": 4251, "EPT": 4252, "BTE": 4253, "ARROW": 4254, "165": 4255, ")*(!!": 4256, "\u0120notch": 4257, "\u0120mac": 4258, "\u0120macro": 4259, "\u0120contacts": 4260, "\u0120asymmetric": 4261, "\u0120RFIP": 4262, "\u0120POjog": 4263, "\u0120LVNW": 4264, "violation": 4265, "ulk": 4266, "prec": 4267, "precis": 4268, "precision": 4269, "good": 4270, "FHVPO": 4271, "117": 4272, "\u0120{{{{{{{": 4273, "\u0120{{\"": 4274, "\u0120head": 4275, "\u0120act": 4276, "\u0120[~(": 4277, "\u0120WSy": 4278, "\u0120WSx": 4279, "\u0120WSR": 4280, "\u0120VTC": 4281, "\u0120PX": 4282, "\u0120NX": 4283, "\u0120FLAG": 4284, "\u0120EXCEPT": 4285, "\u0120ASP": 4286, "\u0120ASPECT": 4287, "\u012016000": 4288, "\u01201600": 4289, "pad": 4290, "led": 4291, "abled": 4292, "WEL": 4293, "VIAxy": 4294, "SOUR": 4295, "SHIELDED": 4296, "PROJ": 4297, "PROJECT": 4298, "FMONOSCELL": 4299, "CUT": 4300, "376": 4301, "305": 4302, "16500": 4303, "15500": 4304, "021": 4305, "\u0120tou": 4306, "\u0120sum": 4307, "\u0120large": 4308, "\u0120exact": 4309, "\u0120conserv": 4310, "\u0120concern": 4311, "\u0120ball": 4312, "\u0120SYMMET": 4313, "\u0120SYMMETRI": 4314, "\u0120SYMMETRIC": 4315, "\u0120POs": 4316, "\u0120FHVOD": 4317, "\u0120&&": 4318, "]==": 4319, "Inter": 4320, "BCO": 4321, "784": 4322, "\u0120remain": 4323, "\u0120overla": 4324, "\u0120overlapp": 4325, "\u0120overlapped": 4326, "\u0120measured": 4327, "\u0120connec": 4328, "\u0120connecti": 4329, "\u0120connectivi": 4330, "\u0120connectivity": 4331, "\u0120buffers": 4332, "\u0120bulk": 4333, "\u0120bod": 4334, "\u0120body": 4335, "\u0120assign": 4336, "\u0120Voltage": 4337, "\u0120That": 4338, "\u0120SRDODx": 4339, "\u0120Recomm": 4340, "\u0120Recommed": 4341, "\u0120Recommeded": 4342, "\u0120RUN": 4343, "\u0120LC": 4344, "\u0120HG": 4345, "\u0120FDIF": 4346, "\u0120DNWEN": 4347, "\u0120BEVE": 4348, "\u0120BEVEL": 4349, "\u0120156": 4350, "\u012013000": 4351, "sb": 4352, "define": 4353, "WO": 4354, "VCA": 4355, "Drian": 4356, "COM": 4357, "2380": 4358, "205": 4359, "13000": 4360, "10000": 4361, "\u0120\u0120\u010a": 4362, "\u0120som": 4363, "\u0120some": 4364, "\u0120methodo": 4365, "\u0120methodolog": 4366, "\u0120methodology": 4367, "\u0120includ": 4368, "\u0120includes": 4369, "\u0120flow": 4370, "\u0120HVNOD": 4371, "\u0120Distance": 4372, "\u0120BTC": 4373, "\u012032": 4374, "set": 4375, "roperty": 4376, "rection": 4377, "rad": 4378, "property": 4379, "ity": 4380, "SBD": 4381, "PADM": 4382, "PPOD": 4383, "NWLVT": 4384, "FHVOD": 4385, "ENMOS": 4386, "\u0120waive": 4387, "\u0120vola": 4388, "\u0120volat": 4389, "\u0120volatage": 4390, "\u0120simultaneou": 4391, "\u0120simultaneouse": 4392, "\u0120simultaneousely": 4393, "\u0120shift": 4394, "\u0120sear": 4395, "\u0120searching": 4396, "\u0120rotated": 4397, "\u0120pr": 4398, "\u0120offset": 4399, "\u0120logic": 4400, "\u0120flagged": 4401, "\u0120compa": 4402, "\u0120actual": 4403, "\u0120actually": 4404, "\u0120New": 4405, "\u0120FG": 4406, "\u0120CICAP": 4407, "\u0120Central": 4408, "\u0120360": 4409, "\u0120300": 4410, "\u0120ULL": 4411, "\u010a\u0120\u010a\u0120": 4412, "sigm": 4413, "sigma": 4414, "direction": 4415, "WITHOUT": 4416, "WW": 4417, "WOW": 4418, "Use": 4419, "FLIP": 4420, "CENTRAL": 4421, "AND": 4422, "+)": 4423, "\u0120may": 4424, "\u0120incre": 4425, "\u0120densi": 4426, "\u0120densiti": 4427, "\u0120densities": 4428, "\u0120SRDPOx": 4429, "\u0120j": 4430, "cut": 4431, "WWGC": 4432, "CHKx": 4433, "\u0120fuse": 4434, "\u0120adop": 4435, "\u0120adopted": 4436, "\u0120VU": 4437, "\u0120PHIA": 4438, "\u0120NHIA": 4439, "\u0120HU": 4440, "\u0120HT": 4441, "\u0120EXGATE": 4442, "\u012030000": 4443, "\u010a\u0120\u0120\u0120\u0120\u0120\u0120\u0120\u0120\u0120\u0120\u0120\u0120\u0120\u0120\u0120\u0120\u0120\u0120\u0120\u0120\u0120\u0120\u0120\u0120": 4444, "\u010a\u0120\u0120\u0120\u0120\u0120\u0120\u0120\u0120\u0120\u0120\u0120\u0120\u0120\u0120\u0120\u0120\u0120": 4445, "grees": 4446, "][": 4447, "Small": 4448, "PERI": 4449, "PERIM": 4450, "Inner": 4451, "BJTR": 4452, "91": 4453, "DRCDMY": 4454, "102": 4455, "101": 4456, "\u0120nec": 4457, "\u0120necess": 4458, "\u0120necessary": 4459, "\u0120errors": 4460, "\u0120SYNC": 4461, "\u0120Me": 4462, "\u0120Method": 4463, "\u0120BUMP": 4464, "\u010a\u0120\u0120\u0120\u0120\u0120\u0120\u0120\u0120\u0120\u0120\u0120\u0120\u0120\u0120\u0120\u0120\u0120\u0120\u0120\u0120\u0120\u0120": 4465, "degrees": 4466, "SYNC": 4467, "PODN": 4468, "INTER": 4469, "DELTA": 4470, "CNT": 4471, "ALLREGION": 4472, "\u0120pur": 4473, "\u0120purpo": 4474, "\u0120purpose": 4475, "\u0120bypa": 4476, "\u0120bypass": 4477, "\u0120GATEi": 4478, "\u0120DCODMY": 4479, "\u012033": 4480, "\u0120150": 4481, "TEVA": 4482, "OTATE": 4483, "HRI": 4484, "DPOs": 4485, "\u0120SREZ": 4486, "\u0120Polyimide": 4487, "\u0120MAY": 4488, "\u0120FHVPSUB": 4489, "\u0120And": 4490, "POL": 4491, "BASE": 4492, "\u0120500": 4493, "\u0120TEXT": 4494, "this": 4495, "nal": 4496, "NI": 4497, "HVPSUB": 4498, "FDIR": 4499, "CCG": 4500, "004": 4501, ".:": 4502, "()]": 4503, "\u0120{([": 4504, "\u0120way": 4505, "\u0120sch": 4506, "\u0120sche": 4507, "\u0120scheme": 4508, "\u0120resistors": 4509, "\u0120pair": 4510, "\u0120isolated": 4511, "\u0120internal": 4512, "\u0120abut": 4513, "\u0120Thin": 4514, "\u0120Net": 4515, "\u0120NAVT": 4516, "\u0120MetalFuseLinkOPC": 4517, "\u0120HVF": 4518, "\u0120BOUNDARY": 4519, "\u012034": 4520, "\u0120250": 4521, "\u0120'": 4522, "silicide": 4523, "nsilicide": 4524, "areaR": 4525, "YAN": 4526, "Vol": 4527, "Unsilicide": 4528, "REAK": 4529, "ODxc": 4530, "MetalFuse": 4531, "MSLDD": 4532, "FHVNW": 4533, "BREAK": 4534, "006": 4535, "\u0120pass": 4536, "\u0120lim": 4537, "\u0120limit": 4538, "\u0120dis": 4539, "\u0120Rectangle": 4540, "\u0120PSDcnco": 4541, "\u0120NSDcnco": 4542, "\u0120FHVNW": 4543, "\u0120text": 4544, "lv": 4545, "Poly": 4546, "\u0120channe": 4547, "\u0120WLOX": 4548, "\u0120Ratio": 4549, "\u0120RRAM": 4550, "\u0120POEX": 4551, "\u0120POA": 4552, "\u0120(>": 4553, "\u0120\u010a\u010a": 4554, "ott": 4555, "cup": 4556, "SmallJog": 4557, "ShortExp": 4558, "Prime": 4559, "DLDD": 4560, "BUMP": 4561, "864": 4562, "608": 4563, "4304": 4564, "419": 4565, "4194304": 4566, "388": 4567, "304": 4568, "291": 4569, "194": 4570, "007": 4571, "\u0120\u010a\u0120\u0120\u0120\u0120\u0120\u0120\u010a\u0120\u0120\u0120": 4572, "\u0120disabled": 4573, "\u0120Vol": 4574, "\u0120LVPO": 4575, "\u0120BELOW": 4576, "\u0120Add": 4577, "\u0120ABOVE": 4578, "connection": 4579, "NWGC": 4580, "Mid": 4581, "BELOW": 4582, "\u0120pairs": 4583, "\u0120field": 4584, "\u0120WERR": 4585, "\u0120RFC": 4586, "\u0120PER": 4587, "\u0120PERP": 4588, "\u0120PERPEND": 4589, "\u0120PERPENDIC": 4590, "\u0120PERPENDICULAR": 4591, "\u0120One": 4592, "\u0120LVOD": 4593, "\u0120EG": 4594, "\u012065": 4595, "\u0120HPC": 4596, "cnNoco": 4597, "SCT": 4598, "RVB": 4599, "RB": 4600, "PWR": 4601, "ODE": 4602, "NONOPC": 4603, "LVOD": 4604, "LET": 4605, "LEAR": 4606, "GRMV": 4607, "CLEAR": 4608, "\u0120toge": 4609, "\u0120together": 4610, "\u0120exists": 4611, "\u0120bef": 4612, "\u0120before": 4613, "\u0120POjogA": 4614, "\u0120NXXHPM": 4615, "\u0120FDIFVER": 4616, "\u0120FPO": 4617, "\u0120Al": 4618, "able": 4619, "COG": 4620, "\u0120eHVTN": 4621, "\u0120allowd": 4622, "\u0120allowded": 4623, "\u0120ELVT": 4624, "\u0120ANTEN": 4625, "\u0120ANTENNA": 4626, "\u0120ULP": 4627, "uM": 4628, "orre": 4629, "SIDEi": 4630, "OPE": 4631, "HANC": 4632, "HANCE": 4633, "FHVPSUB": 4634, "ENHANCE": 4635, "\u0120uni": 4636, "\u0120UBMB": 4637, "\u0120SBD": 4638, "\u0120CENTERLINE": 4639, "test": 4640, "WL": 4641, "Seal": 4642, "LVS": 4643, "Butted": 4644, "APB": 4645, "\u0120touching": 4646, "\u0120gated": 4647, "\u0120SDx": 4648, "\u0120MU": 4649, "\u0120MUST": 4650, "\u0120HVDIO": 4651, "\u0120EGD": 4652, "\u010a\u010a\u010a\u010a\u010a\u010a\u010a\u010a\u010a": 4653, "tra": 4654, "risk": 4655, "cnco": 4656, "EGDE": 4657, "CGPOVER": 4658, "BD": 4659, "\u0120Table": 4660, "\u0120Conn": 4661, "\u010a\u0120\u0120\u0120\u0120\u0120\u0120\u0120\u0120\u0120\u0120\u0120\u0120\u0120\u0120\u0120": 4662, "SRESD": 4663, "RPDMYai": 4664, "PWEL": 4665, "MVHV": 4666, "\u0120symmetric": 4667, "\u0120methods": 4668, "\u0120get": 4669, "\u0120gets": 4670, "\u0120active": 4671, "\u0120HVZMOS": 4672, "\u0120Hi": 4673, "\u0120HRI": 4674, "\u0120Ba": 4675, "\u0120Jog": 4676, "float": 4677, "POcc": 4678, "PT": 4679, "OB": 4680, "58": 4681, "405": 4682, "265": 4683, "144": 4684, "\u0120\u010a\u0120\u0120\u0120\u0120\u0120\u0120\u0120\u0120\u0120\u0120": 4685, "\u0120tar": 4686, "\u0120targ": 4687, "\u0120target": 4688, "\u0120redundan": 4689, "\u0120Unb": 4690, "\u0120Unbalanced": 4691, "\u0120NWRODR": 4692, "\u0120COs": 4693, "\u012089": 4694, "only": 4695, "nm": 4696, "min": 4697, "interconnect": 4698, "be": 4699, "VDMY": 4700, "Source": 4701, "ODW": 4702, "COx": 4703, "\u0120whose": 4704, "\u0120PBR": 4705, "\u0120NDD": 4706, "\u0120FUTM": 4707, "inPW": 4708, "adjacent": 4709, "PICK": 4710, "PICKUP": 4711, "IS": 4712, "HVPO": 4713, "88": 4714, "1011": 4715, "040": 4716, "\u0120redundanc": 4717, "\u0120redundanci": 4718, "\u0120redundancies": 4719, "\u0120meet": 4720, "\u0120bas": 4721, "\u0120based": 4722, "\u0120ROTATE": 4723, "\u0120PB": 4724, "\u0120No": 4725, "\u0120MGPOVER": 4726, "\u0120Fully": 4727, "\u0120600": 4728, "\u012041": 4729, "well": 4730, "ved": 4731, "cribe": 4732, "aived": 4733, "VPW": 4734, "POR": 4735, "PSD": 4736, "Interconnect": 4737, "95": 4738, "\u0120\u010a\u0120\u0120\u0120\u0120": 4739, "\u0120uniform": 4740, "\u0120undero": 4741, "\u0120underover": 4742, "\u0120see": 4743, "\u0120polyimide": 4744, "\u0120interconnection": 4745, "\u0120grad": 4746, "\u0120gradient": 4747, "\u0120VPP": 4748, "\u0120RWi": 4749, "\u0120Eff": 4750, "\u0120CUPM": 4751, "\u0120Base": 4752, "ree": 4753, "rated": 4754, "parated": 4755, "elta": 4756, "OZ": 4757, "NODE": 4758, "NS": 4759, "MBF": 4760, "CUPM": 4761, "ALF": 4762, "009": 4763, "\u0120waived": 4764, "\u0120shielding": 4765, "\u0120su": 4766, "\u0120increment": 4767, "\u0120expo": 4768, "\u0120exposure": 4769, "\u0120deter": 4770, "\u0120RRTE": 4771, "\u0120PSTPn": 4772, "\u0120PSDn": 4773, "\u0120NSTPn": 4774, "\u0120NSDn": 4775, "\u0120Effect": 4776, "wise": 4777, "ottom": 4778, "WBVIA": 4779, "VNW": 4780, "SU": 4781, "SSD": 4782, "EXDi": 4783, "DACTG": 4784, "COR": 4785, "\u0120\u0120\u0120\u010a\u0120\u0120\u0120\u0120\u0120\u0120\u0120\u0120\u0120": 4786, "\u0120three": 4787, "\u0120stra": 4788, "\u0120select": 4789, "\u0120perform": 4790, "\u0120performance": 4791, "\u0120operation": 4792, "\u0120limi": 4793, "\u0120limited": 4794, "\u0120exceptional": 4795, "\u0120dimensions": 4796, "\u0120bit": 4797, "\u0120anyone": 4798, "\u0120There": 4799, "\u0120SLOPE": 4800, "\u0120PSDu": 4801, "\u0120NSDu": 4802, "\u0120NACTx": 4803, "\u0120Guard": 4804, "\u0120GROW": 4805, "\u0120DRAIN": 4806, "\u0120CTCCG": 4807, "\u0120CGD": 4808, "\u0120CSD": 4809, "\u0120ANR": 4810, "\u0120ID": 4811, "can": 4812, "SRDPOx": 4813, "ODcc": 4814, "FODWLOX": 4815, "FG": 4816, "DNUT": 4817, "020": 4818, "\u0120voltages": 4819, "\u0120vari": 4820, "\u0120varied": 4821, "\u0120scribe": 4822, "\u0120rign": 4823, "\u0120nwe": 4824, "\u0120nwels": 4825, "\u0120determin": 4826, "\u0120determination": 4827, "\u0120conservative": 4828, "\u0120butting": 4829, "\u0120WL": 4830, "\u0120Pitch": 4831, "\u0120NARROW": 4832, "\u0120MASK": 4833, "\u0120Inside": 4834, "\u0120HNW": 4835, "\u0120HALF": 4836, "\u0120DummyTCD": 4837, "\u0120But": 4838, "\u0120({{": 4839, "\u0120round": 4840, "\u0120TEVA": 4841, "xmm": 4842, "orrect": 4843, "mmxmm": 4844, "](": 4845, "SUGGE": 4846, "SUGGES": 4847, "SUGGESTED": 4848, "NARROW": 4849, "MOSOD": 4850, "LINEN": 4851, "INOD": 4852, "68": 4853, "465": 4854, "082": 4855, "0465": 4856, "\u0120\u0120\u0120\u010a\u0120\u0120\u0120\u0120\u0120\u0120\u0120\u0120\u0120\u0120\u0120\u0120\u0120\u0120\u0120\u0120": 4857, "\u0120\u0120\u0120\u010a\u010a\u010a\u0120": 4858, "\u0120whe": 4859, "\u0120where": 4860, "\u0120wherever": 4861, "\u0120tiles": 4862, "\u0120such": 4863, "\u0120strapping": 4864, "\u0120stor": 4865, "\u0120storage": 4866, "\u0120stag": 4867, "\u0120stagge": 4868, "\u0120staggered": 4869, "\u0120shorten": 4870, "\u0120shortening": 4871, "\u0120shielded": 4872, "\u0120shor": 4873, "\u0120shorter": 4874, "\u0120separated": 4875, "\u0120spre": 4876, "\u0120spread": 4877, "\u0120redundant": 4878, "\u0120pdiff": 4879, "\u0120ndiff": 4880, "\u0120lv": 4881, "\u0120lvs": 4882, "\u0120jogs": 4883, "\u0120increa": 4884, "\u0120increase": 4885, "\u0120impo": 4886, "\u0120impossib": 4887, "\u0120impossible": 4888, "\u0120imple": 4889, "\u0120im": 4890, "\u0120immun": 4891, "\u0120immunity": 4892, "\u0120exactly": 4893, "\u0120doub": 4894, "\u0120double": 4895, "\u0120consult": 4896, "\u0120allows": 4897, "\u0120aligned": 4898, "\u0120Within": 4899, "\u0120SRCSR": 4900, "\u0120Rs": 4901, "\u0120RMG": 4902, "\u0120RFM": 4903, "\u0120RFMOS": 4904, "\u0120POiOTHERS": 4905, "\u0120Pla": 4906, "\u0120Place": 4907, "\u0120Pat": 4908, "\u0120Patter": 4909, "\u0120Pattern": 4910, "\u0120ODiOTHERS": 4911, "\u0120NWiOTHERS": 4912, "\u0120MB": 4913, "\u0120HiR": 4914, "\u0120HVPOD": 4915, "\u0120Emitter": 4916, "\u0120COiOTHERS": 4917, "\u0120800": 4918, "\u0120(<": 4919, "rd": 4920, "notch": 4921, "mask": 4922, "fill": 4923, "ffective": 4924, "effective": 4925, "With": 4926, "VAROD": 4927, "VPSTP": 4928, "USEM": 4929, "STAMP": 4930, "RISK": 4931, "PSDcnco": 4932, "NSDcnco": 4933, "LMARK": 4934, "IPLVS": 4935, "FY": 4936, "Effective": 4937, "DENT": 4938, "CIDENT": 4939, "994": 4940, "795": 4941, "675": 4942, "435": 4943, "038": 4944, "0288": 4945, "018": 4946, "\u0120utiliz": 4947, "\u0120utilized": 4948, "\u0120tin": 4949, "\u0120tiny": 4950, "\u0120stri": 4951, "\u0120strictly": 4952, "\u0120sources": 4953, "\u0120prod": 4954, "\u0120product": 4955, "\u0120implement": 4956, "\u0120implementation": 4957, "\u0120enclo": 4958, "\u0120encloure": 4959, "\u0120enc": 4960, "\u0120encl": 4961, "\u0120enclso": 4962, "\u0120enclsoure": 4963, "\u0120clamp": 4964, "\u0120cal": 4965, "\u0120calc": 4966, "\u0120calcula": 4967, "\u0120calculated": 4968, "\u0120apply": 4969, "\u0120accumula": 4970, "\u0120accumulated": 4971, "\u0120Utili": 4972, "\u0120Utiliz": 4973, "\u0120Utilization": 4974, "\u0120Seal": 4975, "\u0120Rregion": 4976, "\u0120QR": 4977, "\u0120PWELc": 4978, "\u0120NWRSTIEN": 4979, "\u0120NWRODS": 4980, "\u0120NWELc": 4981, "\u0120NPs": 4982, "\u0120Mask": 4983, "\u0120IPTA": 4984, "\u0120IPTAG": 4985, "\u0120Fi": 4986, "\u0120Field": 4987, "\u0120ESDIMPEN": 4988, "\u0120EPMOSc": 4989, "\u0120ENMOSc": 4990, "\u0120EPSD": 4991, "\u0120DTCDS": 4992, "\u0120Correct": 4993, "\u0120Correcting": 4994, "\u0120>=/": 4995, "\u0120165": 4996, "\u0120\"?": 4997, "\u0120\"?\"": 4998, "\u010a\u010a\u0120\u0120\u010a\u0120": 4999, "unction": 5000, "spaces": 5001, "seal": 5002, "scan": 5003, "scanner": 5004, "multi": 5005, "multiple": 5006, "icide": 5007, "con": 5008, "alicide": 5009, "WLCSP": 5010, "VSSDMY": 5011, "VDDDMY": 5012, "VSE": 5013, "SRDODx": 5014, "Sy": 5015, "Sx": 5016, "Salicide": 5017, "RMG": 5018, "Ring": 5019, "RNWEL": 5020, "PFD": 5021, "OF": 5022, "OFF": 5023, "NPWR": 5024, "NCapNTN": 5025, "NSRM": 5026, "ENS": 5027, "Code": 5028, "CSE": 5029, "ANODE": 5030, "168": 5031, "130": 5032, "01495": 5033, "0147": 5034, "0016": 5035, "+/": 5036, "\u0120\u0120\u0120\u010a\u010a\u0120\u0120": 5037, "\u0120widths": 5038, "\u0120violations": 5039, "\u0120remind": 5040, "\u0120reminder": 5041, "\u0120prof": 5042, "\u0120profi": 5043, "\u0120profile": 5044, "\u0120prBoundary": 5045, "\u0120might": 5046, "\u0120kn": 5047, "\u0120know": 5048, "\u0120knows": 5049, "\u0120just": 5050, "\u0120gap": 5051, "\u0120find": 5052, "\u0120fal": 5053, "\u0120false": 5054, "\u0120desig": 5055, "\u0120designer": 5056, "\u0120conserva": 5057, "\u0120conservatively": 5058, "\u0120comparing": 5059, "\u0120compared": 5060, "\u0120bec": 5061, "\u0120beca": 5062, "\u0120because": 5063, "\u0120ZMOS": 5064, "\u0120You": 5065, "\u0120XHV": 5066, "\u0120Without": 5067, "\u0120War": 5068, "\u0120Warm": 5069, "\u0120Warming": 5070, "\u0120WLET": 5071, "\u0120SLRS": 5072, "\u0120Stra": 5073, "\u0120Strained": 5074, "\u0120Si": 5075, "\u0120NWs": 5076, "\u0120MVHV": 5077, "\u0120MPOL": 5078, "\u0120MDLDD": 5079, "\u0120Log": 5080, "\u0120Logic": 5081, "\u0120LMIN": 5082, "\u0120HVI": 5083, "\u0120HVII": 5084, "\u0120FLAT": 5085, "\u0120FLATTEN": 5086, "\u0120FGCT": 5087, "\u0120FULL": 5088, "\u0120EMBFH": 5089, "\u0120EGRMV": 5090, "\u0120COINCIDENT": 5091, "\u0120CGCT": 5092, "\u0120CGCAP": 5093, "\u0120CSCT": 5094, "\u0120Big": 5095, "\u012040000": 5096, "\u0120ig": 5097, "\u0120igno": 5098, "\u0120ignored": 5099, "xSRM": 5100, "prb": 5101, "prboundary": 5102, "covered": 5103, "Useprboundary": 5104, "UseprBoundary": 5105, "RUN": 5106, "POLYM": 5107, "POLYMIDE": 5108, "HVDNP": 5109, "HVDPP": 5110, "FHVPW": 5111, "080": 5112, "%]": 5113, "\u0120\u0120\u0120\u0120\u0120\u0120\u0120\u0120\u0120\u0120\u0120\u0120\u0120\u0120\u0120\u0120\u0120\u0120\u0120": 5114, "\u0120\u0120\u0120\u0120\u0120\u0120\u0120\u0120\u0120\u0120\u0120\u0120\u0120\u0120\u0120\u0120\u0120\u0120": 5115, "\u0120sho": 5116, "\u0120shoter": 5117, "\u0120settings": 5118, "\u0120parame": 5119, "\u0120parameter": 5120, "\u0120pri": 5121, "\u0120prior": 5122, "\u0120priority": 5123, "\u0120pic": 5124, "\u0120picup": 5125, "\u0120otherwise": 5126, "\u0120others": 5127, "\u0120junction": 5128, "\u0120inform": 5129, "\u0120information": 5130, "\u0120higher": 5131, "\u0120dete": 5132, "\u0120detec": 5133, "\u0120detected": 5134, "\u0120confli": 5135, "\u0120conflict": 5136, "\u0120alway": 5137, "\u0120always": 5138, "\u0120PPUi": 5139, "\u0120NPUi": 5140, "\u0120HVCO": 5141, "\u0120HPSTP": 5142, "\u0120DO": 5143, "\u0120>^": 5144, "\u0120((((((((": 5145, "efault": 5146, "VISO": 5147, "PHIA": 5148, "On": 5149, "NHI": 5150, "NHIA": 5151, "NDD": 5152, "If": 5153, "DEP": 5154, "Default": 5155, "CTMDMY": 5156, "33000": 5157, "26000": 5158, "129": 5159, "\u0120pls": 5160, "\u0120exa": 5161, "\u0120examp": 5162, "\u0120example": 5163, "\u0120eLVT": 5164, "\u0120PIPLVS": 5165, "\u0120KOZ": 5166, "\u0120FODWLOX": 5167, "\u0120APu": 5168, "\u0120;": 5169, "]}": 5170, "Non": 5171, "\u0120left": 5172, "\u0120case": 5173, "\u0120FILL": 5174, "\u0120Diode": 5175, "\u012067": 5176, "exist": 5177, "contact": 5178, "bottom": 5179, "RRTE": 5180, "ODIN": 5181, "MVISO": 5182, "\u0120\u0120\u0120\u010a\u010a\u0120": 5183, "\u0120sec": 5184, "\u0120second": 5185, "\u0120right": 5186, "\u0120perim": 5187, "\u0120patternsfill": 5188, "\u0120patternsfilling": 5189, "\u0120lowe": 5190, "\u0120lowest": 5191, "\u0120link": 5192, "\u0120grea": 5193, "\u0120greater": 5194, "\u0120deltaV": 5195, "\u0120RECT": 5196, "\u0120Pick": 5197, "\u0120Pickup": 5198, "\u0120PickupH": 5199, "\u0120PickupHole": 5200, "\u0120HVDN": 5201, "\u0120Connect": 5202, "\u012011": 5203, "\u0120DNUT": 5204, "nf": 5205, "alf": 5206, "[!!": 5207, "STRAP": 5208, "Square": 5209, "NONW": 5210, "MetalFuseLinkOPC": 5211, "HVZMOS": 5212, "HVF": 5213, "DCODMY": 5214, "Cut": 5215, "2500": 5216, "!~(": 5217, "\u0120they": 5218, "\u0120sealr": 5219, "\u0120sealrind": 5220, "\u0120sensitive": 5221, "\u0120depend": 5222, "\u0120deg": 5223, "\u0120degrad": 5224, "\u0120degradation": 5225, "\u0120contains": 5226, "\u0120Sensitive": 5227, "\u0120RING": 5228, "\u0120PMETR": 5229, "\u0120NXXHP": 5230, "\u0120Layer": 5231, "\u0120HVOXi": 5232, "\u0120CBx": 5233, "\u0120Cm": 5234, "\u0120Cmula": 5235, "\u0120Cmulative": 5236, "}}]": 5237, "ble": 5238, "TD": 5239, "STCAP": 5240, "POA": 5241, "MATCH": 5242, "CTCDMY": 5243, "Cell": 5244, "8388": 5245, "8388608": 5246, "67108": 5247, "67108864": 5248, "6291": 5249, "6291456": 5250, "300": 5251, "204": 5252, ")*(!~(": 5253, "\u0120\u0120\u010a\u0120\u0120\u0120": 5254, "\u0120viola": 5255, "\u0120violating": 5256, "\u0120sign": 5257, "\u0120mess": 5258, "\u0120message": 5259, "\u0120increments": 5260, "\u0120concerning": 5261, "\u0120additional": 5262, "\u0120abs": 5263, "\u0120absence": 5264, "\u0120ap": 5265, "\u0120appe": 5266, "\u0120appear": 5267, "\u0120WBAP": 5268, "\u0120UBMs": 5269, "\u0120UNI": 5270, "\u0120Sum": 5271, "\u0120Stre": 5272, "\u0120Stress": 5273, "\u0120Relief": 5274, "\u0120RHODR": 5275, "\u0120ORS": 5276, "\u0120ORSRAM": 5277, "\u0120ORSRAMDMY": 5278, "\u0120Note": 5279, "\u0120NG": 5280, "\u0120MOSF": 5281, "\u0120MOSFET": 5282, "\u0120MC": 5283, "\u0120LOG": 5284, "\u0120LOGSRAMDMY": 5285, "\u0120Customer": 5286, "\u0120Customers": 5287, "\u0120Corner": 5288, "\u0120BEVA": 5289, "\u0120HPL": 5290, "peci": 5291, "pecial": 5292, "Stepping": 5293, "SDMY": 5294, "PRL": 5295, "ODHG": 5296, "MM": 5297, "152": 5298, ")][": 5299, "\u0120view": 5300, "\u0120logo": 5301, "\u0120files": 5302, "\u0120enclosed": 5303, "\u0120direct": 5304, "\u0120directory": 5305, "\u0120connecting": 5306, "\u0120Summ": 5307, "\u0120Summary": 5308, "\u0120Shape": 5309, "\u0120FOB": 5310, "\u0120Cross": 5311, "\u0120ro": 5312, "section": 5313, "sectional": 5314, "connected": 5315, "VSR": 5316, "UBMB": 5317, "Special": 5318, "POEX": 5319, "NXXLP": 5320, "ELVT": 5321, "CU": 5322, "\u0120ste": 5323, "\u0120step": 5324, "\u0120rout": 5325, "\u0120routing": 5326, "\u0120loc": 5327, "\u0120location": 5328, "\u0120exclu": 5329, "\u0120exclusion": 5330, "\u0120coin": 5331, "\u0120Or": 5332, "\u0120NPODinPW": 5333, "\u0120NOTUSEM": 5334, "\u0120FLVOD": 5335, "\u0120Delta": 5336, "\u0120COin": 5337, "\u0120\"-": 5338, "\u0120HORIZONTAL": 5339, "windows": 5340, "us": 5341, "mide": 5342, "RTLB": 5343, "PWELi": 5344, "PGATE": 5345, "ODWLOX": 5346, "NODNW": 5347, "NGATE": 5348, "LargeNumber": 5349, "IOLV": 5350, "HVN": 5351, "FDIF": 5352, "DONUT": 5353, "Array": 5354, "\u0120touch": 5355, "\u0120rad": 5356, "\u0120radi": 5357, "\u0120radius": 5358, "\u0120500000": 5359, "\u0120300000": 5360, "whole": 5361, "rdb": 5362, "VPP": 5363, "SZ": 5364, "AMBF": 5365, "220": 5366, "\u0120\u0120\u0120\u0120\u0120\u0120\u0120\u0120\u0120\u0120": 5367, "\u0120rounding": 5368, "\u0120SENSDMY": 5369, "\u0120PSTPcnNoco": 5370, "\u0120POjogB": 5371, "\u0120PNP": 5372, "\u0120NSTPcnNoco": 5373, "\u0120HRPO": 5374, "\u0120Enclosured": 5375, "\u010a\u010a\u010a\u0120\u0120\u0120": 5376, "if": 5377, "edgeAP": 5378, "avoid": 5379, "aR": 5380, "TILE": 5381, "TEDGE": 5382, "OUTEDGE": 5383, "Node": 5384, "HVNOD": 5385, "HVND": 5386, "Half": 5387, "Gate": 5388, "FMW": 5389, "ETCAP": 5390, "BOX": 5391, "BBOX": 5392, "\u0120\u0120\u0120\u0120\u0120\u0120\u0120\u010a\u0120": 5393, "\u0120\u0120\u0120\u0120\u0120\u010a\u0120\u0120": 5394, "\u0120targeting": 5395, "\u0120tra": 5396, "\u0120trace": 5397, "\u0120risk": 5398, "\u0120options": 5399, "\u0120cu": 5400, "\u0120CDU": 5401, "\u0120CP": 5402, "\u0120CPUM": 5403, "\u0120Antic": 5404, "\u0120Antici": 5405, "\u0120Anticipa": 5406, "\u0120Anticipate": 5407, "\u012042": 5408, "\u01201500": 5409, "olerance": 5410, "both": 5411, "VERTI": 5412, "VERTIC": 5413, "VERTICAL": 5414, "TDUBM": 5415, "SN": 5416, "SNDMY": 5417, "RRDMY": 5418, "PB": 5419, "FO": 5420, "FCTCDMY": 5421, "ESDDMY": 5422, "CTCCG": 5423, "121": 5424, "\u0120\u0120\u010a\u0120\u0120\u0120\u0120\u0120\u0120\u0120\u0120\u0120": 5425, "\u0120\u0120\u010a\u010a\u010a\u010a\u010a\u0120": 5426, "\u0120\u010a\u0120\u0120\u0120\u0120\u0120\u0120\u0120\u0120\u0120\u0120\u0120": 5427, "\u0120sup": 5428, "\u0120polymide": 5429, "\u0120coincided": 5430, "\u0120VAL": 5431, "\u0120VALID": 5432, "\u0120Recommendation": 5433, "\u0120RHRI": 5434, "\u0120Rule": 5435, "\u0120PSTPcnco": 5436, "\u0120PPODinPW": 5437, "\u0120Pas": 5438, "\u0120Passi": 5439, "\u0120Passiv": 5440, "\u0120Passivation": 5441, "\u0120OPCR": 5442, "\u0120ODSpace": 5443, "\u0120NSTPcnco": 5444, "\u0120LPWELi": 5445, "\u0120Ke": 5446, "\u0120Holes": 5447, "\u0120HolesWith": 5448, "\u0120HolesWithOD": 5449, "\u0120HVPS": 5450, "\u0120HVPSUBM": 5451, "\u0120HVPSUBMW": 5452, "\u0120GMerge": 5453, "\u0120FHVPW": 5454, "\u0120FLIP": 5455, "\u0120BULK": 5456, "\u0120116": 5457, "\u0120UM": 5458, "inf": 5459, "expanding": 5460, "alone": 5461, "XHV": 5462, "WBx": 5463, "WLET": 5464, "VNSTP": 5465, "UBMDN": 5466, "SLRS": 5467, "ROTATE": 5468, "MGL": 5469, "MDLDD": 5470, "MBFH": 5471, "MPOL": 5472, "LMIN": 5473, "IR": 5474, "HVII": 5475, "FGCT": 5476, "FLVOD": 5477, "EGD": 5478, "EMBFH": 5479, "EGRMV": 5480, "CGD": 5481, "CGCT": 5482, "CGCAP": 5483, "CBMFINAL": 5484, "CASE": 5485, "CSD": 5486, "CSCT": 5487, "BE": 5488, "775": 5489, "395": 5490, "112": 5491, "111": 5492, ").)": 5493, "((((": 5494, "\u0120zer": 5495, "\u0120zero": 5496, "\u0120enabled": 5497, "\u0120Waive": 5498, "\u0120PSDcnNoco": 5499, "\u0120NSDcnNoco": 5500, "\u0120NEG": 5501, "\u0120Mer": 5502, "\u0120Merge": 5503, "\u0120HVDP": 5504, "\u0120FMSLDD": 5505, "\u0120Connection": 5506, "\u0120AMBF": 5507, "\u01203000": 5508, "tmp": 5509, "peri": 5510, "ition": 5511, "NXXHP": 5512, "BDTCDDN": 5513, "1500": 5514, "\u0120your": 5515, "\u0120supp": 5516, "\u0120new": 5517, "\u0120intersection": 5518, "\u0120SSDa": 5519, "\u0120Recogn": 5520, "\u0120Recognition": 5521, "\u0120NPN": 5522, "\u0120Kelv": 5523, "\u0120Kelvin": 5524, "\u0120FMDLDD": 5525, "\u0120DVR": 5526, "\u0120DRM": 5527, "\u010a\u010a\u010a\u010a\u0120\u0120": 5528, "|>_": 5529, "irc": 5530, "ircle": 5531, "ered": 5532, "WWGCi": 5533, "Voltage": 5534, "SEG": 5535, "PLDDi": 5536, "OUTTER": 5537, "NWGCi": 5538, "NLDDi": 5539, "IPW": 5540, "FCx": 5541, "Delta": 5542, "COEN": 5543, "BEVA": 5544, "BER": 5545, "')]": 5546, "\")": 5547, "\u0120won": 5548, "\u0120simultaneous": 5549, "\u0120simultaneously": 5550, "\u0120meeting": 5551, "\u0120Spacing": 5552, "\u0120POLYG": 5553, "\u0120POLYGON": 5554, "\u0120Others": 5555, "\u0120IOESDDMY": 5556, "\u0120FMW": 5557, "\u0120DF": 5558, "\u0120CETCAP": 5559, "\u0120BJTSNDMY": 5560, "ottk": 5561, "ottky": 5562, "exclude": 5563, "SOLDE": 5564, "SOLDER": 5565, "SCHE": 5566, "SCHEME": 5567, "HVLN": 5568, "EXTENTS": 5569, "Definition": 5570, "CONT": 5571, "BALL": 5572, "Active": 5573, "ABS": 5574, "\u0120\u0120\u0120\u0120\u0120\u0120\u0120\u0120\u0120\u0120\u0120\u0120\u0120\u0120\u0120\u0120\u0120\u0120\u0120\u0120\u0120": 5575, "\u0120{{(": 5576, "\u0120wi": 5577, "\u0120wire": 5578, "\u0120underne": 5579, "\u0120undernea": 5580, "\u0120underneath": 5581, "\u0120tie": 5582, "\u0120selection": 5583, "\u0120reserv": 5584, "\u0120reserved": 5585, "\u0120require": 5586, "\u0120requirement": 5587, "\u0120requ": 5588, "\u0120reques": 5589, "\u0120requested": 5590, "\u0120offered": 5591, "\u0120mak": 5592, "\u0120making": 5593, "\u0120mo": 5594, "\u0120most": 5595, "\u0120keepout": 5596, "\u0120iso": 5597, "\u0120fac": 5598, "\u0120facing": 5599, "\u0120cop": 5600, "\u0120copper": 5601, "\u0120central": 5602, "\u0120Unsilicided": 5603, "\u0120SRMDMY": 5604, "\u0120SDE": 5605, "\u0120PI": 5606, "\u0120PITCH": 5607, "\u0120ODL": 5608, "\u0120HNSTP": 5609, "\u0120HFCTCDMY": 5610, "\u0120GO": 5611, "\u0120GOOG": 5612, "\u0120FHVSR": 5613, "\u0120FO": 5614, "\u0120FNW": 5615, "\u0120FCG": 5616, "\u0120DMy": 5617, "\u012046": 5618, "track": 5619, "reat": 5620, "gener": 5621, "general": 5622, "but": 5623, "VTNi": 5624, "VIAi": 5625, "TIGH": 5626, "TIGHTEN": 5627, "OLA": 5628, "OLATE": 5629, "Less": 5630, "HPSTP": 5631, "Great": 5632, "FDIFVER": 5633, "Abut": 5634, "-(": 5635, "))*!!": 5636, "(^": 5637, "())*!!": 5638, "''": 5639, "\u0120extended": 5640, "\u0120count": 5641, "\u0120cannot": 5642, "\u0120corre": 5643, "\u0120corres": 5644, "\u0120corresp": 5645, "\u0120correspond": 5646, "\u0120corresponding": 5647, "\u0120VMGL": 5648, "\u0120Sch": 5649, "\u0120Schottky": 5650, "\u0120RFP": 5651, "\u0120MTOP": 5652, "\u0120HVNWi": 5653, "\u0120HPACT": 5654, "\u0120HNACT": 5655, "tolerance": 5656, "reD": 5657, "reDO": 5658, "reDOSRM": 5659, "onut": 5660, "bump": 5661, "]},": 5662, "ZGATE": 5663, "WCUi": 5664, "WAL": 5665, "WALi": 5666, "VIAyu": 5667, "THODE": 5668, "TCAP": 5669, "Sealring": 5670, "ODR": 5671, "OFUSE": 5672, "LVNW": 5673, "HVISO": 5674, "GEN": 5675, "End": 5676, "DUMGEN": 5677, "DECAP": 5678, "CCO": 5679, "CATHODE": 5680, "\u0120\u0120\u0120\u0120\u0120\u0120\u0120\u0120\u0120\u0120\u0120\u0120\u0120\u0120\u0120\u0120\u0120\u0120\u0120\u0120\u0120\u0120\u0120\u0120\u0120\u0120\u0120\u0120\u0120\u0120\u0120\u0120": 5681, "\u0120solder": 5682, "\u0120rea": 5683, "\u0120reapectively": 5684, "\u0120interacting": 5685, "\u0120conve": 5686, "\u0120convex": 5687, "\u0120bey": 5688, "\u0120beyond": 5689, "\u0120balls": 5690, "\u0120STAR": 5691, "\u0120STARP": 5692, "\u0120POLYs": 5693, "\u0120PCC": 5694, "\u0120LP": 5695, "\u0120HVPSTP": 5696, "\u0120HVNSTP": 5697, "\u0120HNTAP": 5698, "\u0120Ground": 5699, "\u0120FRH": 5700, "\u0120CTCOD": 5701, "\u0120CGPO": 5702, "\u0120CENTRAL": 5703, "\u0120245": 5704, "\u01202451": 5705, "\u0120-(": 5706, "poedge": 5707, "new": 5708, "gh": 5709, "SLOPE": 5710, "RCGC": 5711, "RLH": 5712, "NOTUSEM": 5713, "Inside": 5714, "IONW": 5715, "HVPWDIO": 5716, "HVNWDIO": 5717, "FOR": 5718, "BJTPO": 5719, "ALLx": 5720, "\u0120\u0120\u0120\u0120\u0120\u010a\u010a\u0120": 5721, "\u0120\u0120\u010a\u010a\u010a": 5722, "\u0120\u010a\u0120\u0120\u0120\u0120\u0120\u0120\u0120\u0120\u0120\u0120\u0120\u0120\u0120": 5723, "\u0120av": 5724, "\u0120avai": 5725, "\u0120availa": 5726, "\u0120available": 5727, "\u0120VIOLATE": 5728, "\u0120VHVLN": 5729, "\u0120TRIANGLE": 5730, "\u0120St": 5731, "\u0120Short": 5732, "\u0120RWn": 5733, "\u0120Po": 5734, "\u0120PL": 5735, "\u0120Minmum": 5736, "\u0120Isolation": 5737, "\u0120DS": 5738, "\u0120DSDIO": 5739, "\u0120CTCPICKUP": 5740, "\u0120COODinf": 5741, "\u0120BVDMY": 5742, "\u0120@{": 5743, "\u012081": 5744, "\u0120((((((": 5745, "\u0120test": 5746, "\u010a\u0120\u0120\u0120\u0120\u0120\u0120\u0120\u0120\u0120\u0120\u0120\u0120\u0120\u0120": 5747, "WIDE": 5748, "Net": 5749, "MDLD": 5750, "FHVSR": 5751, "CTCPICKUP": 5752, "BB": 5753, "94": 5754, "\")))]": 5755, "\u0120table": 5756, "\u0120support": 5757, "\u0120nei": 5758, "\u0120neiboring": 5759, "\u0120donut": 5760, "\u0120dia": 5761, "\u0120diameter": 5762, "\u0120dgree": 5763, "\u0120conta": 5764, "\u0120contained": 5765, "\u0120bumps": 5766, "\u0120bottom": 5767, "\u0120UN": 5768, "\u0120UNBA": 5769, "\u0120UNBALA": 5770, "\u0120UNBALANC": 5771, "\u0120UNBALANCE": 5772, "\u0120Two": 5773, "\u0120Tri": 5774, "\u0120SV": 5775, "\u0120RRRE": 5776, "\u0120RRREPOS": 5777, "\u0120RI": 5778, "\u0120RISK": 5779, "\u0120Point": 5780, "\u0120ORING": 5781, "\u0120ONRU": 5782, "\u0120ONRULE": 5783, "\u0120Ob": 5784, "\u0120Obli": 5785, "\u0120Obliqu": 5786, "\u0120Oblique": 5787, "\u0120OTH": 5788, "\u0120OTHER": 5789, "\u0120NI": 5790, "\u0120IRING": 5791, "\u0120HVRPO": 5792, "\u0120HBUTT": 5793, "\u0120GMergeW": 5794, "\u0120GMergeB": 5795, "\u0120CTCDMY": 5796, "\u0120COinHVOD": 5797, "\u0120COinESF": 5798, "\u0120CBDx": 5799, "\u0120Anode": 5800, "\u012061": 5801, "\u0120494": 5802, "\u0120278": 5803, "\u0120144": 5804, "\u0120-^": 5805, "\u0120IONW": 5806, "\u0120$": 5807, "\u010a\u010a\u010a\u010a\u0120\u0120\u0120": 5808, "umulate": 5809, "sic": 5810, "mf": 5811, "cumulate": 5812, "accumulate": 5813, "]]": 5814, "VNOD": 5815, "VPMOS": 5816, "VBUTT": 5817, "Total": 5818, "TRA": 5819, "TRACE": 5820, "TOT": 5821, "TOTAL": 5822, "RECIS": 5823, "RECISION": 5824, "PRECISION": 5825, "NOVSS": 5826, "NIOLV": 5827, "NE": 5828, "MGPOVER": 5829, "LESS": 5830, "KOZ": 5831, "FWLOX": 5832, "FOB": 5833, "EDGEC": 5834, "Circle": 5835, "CM": 5836, "554": 5837, "432": 5838, "195": 5839, "1733": 5840, "1216": 5841, "+(": 5842, ")<": 5843, "))/": 5844, "\u0120max": 5845, "\u0120coul": 5846, "\u0120couldn": 5847, "\u0120completely": 5848, "\u0120WW": 5849, "\u0120TD": 5850, "\u0120STITCAP": 5851, "\u0120STCAP": 5852, "\u0120SRMN": 5853, "\u0120SRMP": 5854, "\u0120RINGMOS": 5855, "\u0120RFPP": 5856, "\u0120PPODR": 5857, "\u0120ODDECAP": 5858, "\u0120NWRSTIR": 5859, "\u0120NPreDOSRM": 5860, "\u0120NILD": 5861, "\u0120NEOFUSE": 5862, "\u0120MGPO": 5863, "\u0120LPACT": 5864, "\u0120LNACT": 5865, "\u0120FMCHIP": 5866, "\u0120Fig": 5867, "\u0120FWCUi": 5868, "\u0120FWALi": 5869, "\u0120DMu": 5870, "\u0120DILVS": 5871, "\u0120DCOi": 5872, "\u0120CTMi": 5873, "\u0120CGDUMGEN": 5874, "\u0120CBMi": 5875, "\u0120CU": 5876, "\u0120BJTTDMY": 5877, "\u0120=(": 5878, "\u012077": 5879, "\u012066": 5880, "\u012052": 5881, "\u012044": 5882, "\u0120111": 5883, "\u0120(((((((((": 5884, "\u010a\u0120\u0120\u0120\u010a\u0120": 5885, "var": 5886, "varactor": 5887, "rdl": 5888, "nel": 5889, "ny": 5890, "kip": 5891, "kipBoundary": 5892, "hannel": 5893, "WIRE": 5894, "VNACT": 5895, "VRW": 5896, "VPACT": 5897, "SkipBoundary": 5898, "PDIO": 5899, "NVN": 5900, "Interconnection": 5901, "HVOX": 5902, "HIR": 5903, "COVER": 5904, "CGPO": 5905, "Channel": 5906, "BVDMY": 5907, "Any": 5908, "86": 5909, "73": 5910, "024": 5911, "008": 5912, "')](": 5913, "\u0120\u0120\u0120\u0120\u0120\u0120\u0120\u0120\u0120\u0120\u0120": 5914, "\u0120\u0120\u0120\u010a\u0120\u0120\u0120\u0120": 5915, "\u0120\u0120\u0120\u010a\u0120\u0120\u010a\u0120\u0120\u010a\u0120": 5916, "\u0120\u0120\u0120\u010a\u0120\u0120\u010a\u0120": 5917, "\u0120\u010a\u0120\u0120\u0120\u0120\u0120\u0120\u0120\u0120\u0120\u0120\u0120\u0120\u0120\u0120": 5918, "\u0120zoneas": 5919, "\u0120zoneassembly": 5920, "\u0120thro": 5921, "\u0120throu": 5922, "\u0120through": 5923, "\u0120suppor": 5924, "\u0120supported": 5925, "\u0120stagger": 5926, "\u0120retre": 5927, "\u0120retreat": 5928, "\u0120retreatment": 5929, "\u0120prob": 5930, "\u0120proba": 5931, "\u0120probability": 5932, "\u0120overall": 5933, "\u0120nonACT": 5934, "\u0120ins": 5935, "\u0120dim": 5936, "\u0120chck": 5937, "\u0120circle": 5938, "\u0120barmust": 5939, "\u0120TI": 5940, "\u0120TILE": 5941, "\u0120SRDPOR": 5942, "\u0120RVx": 5943, "\u0120Otherwise": 5944, "\u0120OSE": 5945, "\u0120MD": 5946, "\u0120MDLD": 5947, "\u0120INTER": 5948, "\u0120HVHVNW": 5949, "\u0120FIND": 5950, "\u0120FCB": 5951, "\u0120EHVTP": 5952, "\u0120EHVTN": 5953, "\u0120DUMMY": 5954, "\u0120DMz": 5955, "\u0120DEPVTN": 5956, "\u0120Drian": 5957, "\u0120Dou": 5958, "\u0120Double": 5959, "\u0120COI": 5960, "\u0120COISRAM": 5961, "\u0120CR": 5962, "\u0120CRNXXLP": 5963, "\u0120Block": 5964, "\u0120BA": 5965, "\u0120BASE": 5966, "\u012068": 5967, "\u0120167": 5968, "\u0120135": 5969, "\u0120\u010a\u010a\u0120\u0120\u0120": 5970, "\u010a\u0120\u0120\u0120\u0120\u0120\u0120\u0120\u0120\u0120\u0120\u0120\u0120\u0120\u0120\u0120\u0120\u0120\u0120\u0120\u0120\u0120\u0120\u0120\u0120\u0120\u0120\u0120\u0120\u0120\u0120": 5971, "\u010a\u0120\u0120\u0120\u0120\u0120\u0120\u0120\u0120\u0120\u0120\u0120\u0120\u0120\u0120\u0120\u0120": 5972, "}>=": 5973, "xe": 5974, "virtual": 5975, "poly": 5976, "odule": 5977, "odes": 5978, "max": 5979, "local": 5980, "half": 5981, "VUD": 5982, "Tolerance": 5983, "SLD": 5984, "PACTx": 5985, "Pls": 5986, "PH": 5987, "NPUi": 5988, "NSD": 5989, "LExe": 5990, "GateLExe": 5991, "FCG": 5992, "FNW": 5993, "CTCOD": 5994, "CTCCO": 5995, "3800": 5996, "351": 5997, "3100": 5998, "/,": 5999, ".=": 6000, ")>=": 6001, "\u0120sd": 6002, "\u0120resistance": 6003, "\u0120leg": 6004, "\u0120connnect": 6005, "\u0120Stagger": 6006, "\u0120PMDMY": 6007, "\u0120Module": 6008, "\u0120LVDNW": 6009, "\u0120INTERRACT": 6010, "\u0120HVPP": 6011, "\u0120FWLOX": 6012, "\u0120CTCRPO": 6013, "\u0120CTCCO": 6014, "\u0120ALLOD": 6015, "\u0120>=^": 6016, "\u0120=^": 6017, "\u0120ge": 6018, "\u0120geom": 6019, "\u0120geomet": 6020, "\u0120geometri": 6021, "\u0120geometries": 6022, "}).": 6023, "uT": 6024, "sides": 6025, "sd": 6026, "endcap": 6027, "amg": 6028, "XOR": 6029, "Vt": 6030, "VMGL": 6031, "RHRI": 6032, "Pre": 6033, "NOHV": 6034, "HFCTCDMY": 6035, "GROW": 6036, "FMSLDD": 6037, "FRPO": 6038, "FLOAT": 6039, "DNWS": 6040, "DEVICES": 6041, "CTCRPO": 6042, "CETCAP": 6043, "87": 6044, "315": 6045, "125": 6046, "(((": 6047, "(!": 6048, "\u0120\u0120\u0120\u0120\u0120\u0120\u0120\u0120\u0120\u0120\u0120\u0120\u0120\u0120\u0120\u0120\u0120": 6049, "\u0120\u0120\u0120\u0120\u010a\u010a\u0120": 6050, "\u0120\u0120\u0120\u010a\u0120\u0120\u0120\u0120\u0120": 6051, "\u0120\u010a\u0120\u0120\u0120\u0120\u0120\u0120\u0120": 6052, "\u0120{@{": 6053, "\u0120unifor": 6054, "\u0120uniformi": 6055, "\u0120uniformity": 6056, "\u0120unst": 6057, "\u0120unstable": 6058, "\u0120unint": 6059, "\u0120uninten": 6060, "\u0120unintention": 6061, "\u0120unintentional": 6062, "\u0120unb": 6063, "\u0120unbro": 6064, "\u0120unbroken": 6065, "\u0120tr": 6066, "\u0120stacking": 6067, "\u0120setup": 6068, "\u0120segment": 6069, "\u0120req": 6070, "\u0120requred": 6071, "\u0120real": 6072, "\u0120ok": 6073, "\u0120notches": 6074, "\u0120ner": 6075, "\u0120nergh": 6076, "\u0120nerghboring": 6077, "\u0120insu": 6078, "\u0120insude": 6079, "\u0120fan": 6080, "\u0120fanout": 6081, "\u0120extent": 6082, "\u0120extentsion": 6083, "\u0120equila": 6084, "\u0120equilater": 6085, "\u0120equilateral": 6086, "\u0120diodes": 6087, "\u0120coexist": 6088, "\u0120cer": 6089, "\u0120cert": 6090, "\u0120certain": 6091, "\u0120ba": 6092, "\u0120base": 6093, "\u0120acting": 6094, "\u0120[^": 6095, "\u0120Vss": 6096, "\u0120Top": 6097, "\u0120TopMu": 6098, "\u0120TopMuW": 6099, "\u0120TopMuWhole": 6100, "\u0120TopMuWholeD": 6101, "\u0120TopMuWholeDen": 6102, "\u0120SRAMPS": 6103, "\u0120SRAMPSG": 6104, "\u0120SRAMPSGT": 6105, "\u0120Sili": 6106, "\u0120Silicon": 6107, "\u0120Requi": 6108, "\u0120Required": 6109, "\u0120RFPMOS": 6110, "\u0120RFNMOS": 6111, "\u0120RT": 6112, "\u0120RTLB": 6113, "\u0120ROUND": 6114, "\u0120Polymide": 6115, "\u0120PAVT": 6116, "\u0120PAVTP": 6117, "\u0120ODc": 6118, "\u0120ODR": 6119, "\u0120OL": 6120, "\u0120NOTUSE": 6121, "\u0120MVPP": 6122, "\u0120MVNP": 6123, "\u0120MFUSELINKOPC": 6124, "\u0120MSLD": 6125, "\u0120Low": 6126, "\u0120Lg": 6127, "\u0120Ids": 6128, "\u0120Idsat": 6129, "\u0120Horizontal": 6130, "\u0120HNONWR": 6131, "\u0120HL": 6132, "\u0120HD": 6133, "\u0120Gated": 6134, "\u0120Fla": 6135, "\u0120Flas": 6136, "\u0120Flash": 6137, "\u0120FRES": 6138, "\u0120FNWRSTI": 6139, "\u0120EGCT": 6140, "\u0120DMyEXCL": 6141, "\u0120CuB": 6142, "\u0120CuBOL": 6143, "\u0120COinf": 6144, "\u0120COPOinf": 6145, "\u0120CGPOCT": 6146, "\u0120CBMFINAL": 6147, "\u0120CEC": 6148, "\u0120CC": 6149, "\u0120Basic": 6150, "\u0120<=^": 6151, "\u012073": 6152, "\u01206807": 6153, "\u0120450": 6154, "\u0120*}": 6155, "\u0120(((((((((((": 6156, "\u0120(((((((((((((((": 6157, "\u0120((((((((((((((((((": 6158, "\u0120HO": 6159, "}}}.": 6160, "}]]": 6161, "tow": 6162, "toward": 6163, "rin": 6164, "rinsic": 6165, "nderfill": 6166, "intrinsic": 6167, "indi": 6168, "individual": 6169, "ecked": 6170, "eparated": 6171, "directional": 6172, "allow": 6173, "XC": 6174, "WBi": 6175, "VALID": 6176, "VPOD": 6177, "VNMOS": 6178, "VHVLN": 6179, "TIVE": 6180, "Stagger": 6181, "STITCAP": 6182, "SRMN": 6183, "SRAMP": 6184, "SRMP": 6185, "SRMDMY": 6186, "SENSDMY": 6187, "SEALRINGi": 6188, "Separated": 6189, "Scribe": 6190, "RINGMOS": 6191, "ROUND": 6192, "PSTPcnco": 6193, "PSTPcnNoco": 6194, "PSDcnNoco": 6195, "PROPE": 6196, "PIPLVS": 6197, "PBR": 6198, "ODEXC": 6199, "ODDECAP": 6200, "Out": 6201, "NSTPcnco": 6202, "NSTPcnNoco": 6203, "NSDcnNoco": 6204, "NPreDOSRM": 6205, "NILD": 6206, "NEOFUSE": 6207, "NEI": 6208, "NEG": 6209, "MT": 6210, "Line": 6211, "Lg": 6212, "Interact": 6213, "ISOx": 6214, "IOESDDMY": 6215, "ICRO": 6216, "HVOXi": 6217, "HVNWi": 6218, "FMONOSDMY": 6219, "FMDLDD": 6220, "FMCHIP": 6221, "FCi": 6222, "FWCUi": 6223, "FWALi": 6224, "FRES": 6225, "FNWRSTI": 6226, "FEN": 6227, "EGCT": 6228, "DSDIO": 6229, "DILVS": 6230, "DCOi": 6231, "Checked": 6232, "CTMi": 6233, "CICAP": 6234, "CGPOCT": 6235, "CGDUMGEN": 6236, "CCET": 6237, "CBMi": 6238, "BJTSNDMY": 6239, "AA": 6240, "554432": 6241, "33554432": 6242, "325": 6243, "252": 6244, "187": 6245, "1000000": 6246, ")})": 6247, "'''": 6248, "%,": 6249, "\u0120\u0120\u0120\u0120\u0120\u0120\u0120\u0120\u0120\u0120\u0120\u0120\u0120\u0120\u0120\u0120\u0120\u0120\u0120\u0120\u0120\u0120\u0120\u0120\u0120\u0120\u0120\u0120\u0120\u0120\u0120\u0120\u0120\u0120\u0120\u0120\u0120\u0120\u0120\u0120\u0120\u0120\u0120\u0120\u0120\u0120\u0120\u0120": 6250, "\u0120\u0120\u0120\u010a\u010a": 6251, "\u0120\u010a\u0120\u0120\u0120\u0120\u0120\u0120\u0120\u0120\u0120\u0120\u0120\u0120": 6252, "\u0120\u010a\u0120\u0120\u010a": 6253, "\u0120{{{{{{{{{": 6254, "\u0120zon": 6255, "\u0120zones": 6256, "\u0120wor": 6257, "\u0120work": 6258, "\u0120tria": 6259, "\u0120triagle": 6260, "\u0120sin": 6261, "\u0120since": 6262, "\u0120sap": 6263, "\u0120sapce": 6264, "\u0120proper": 6265, "\u0120plac": 6266, "\u0120placing": 6267, "\u0120neg": 6268, "\u0120negative": 6269, "\u0120now": 6270, "\u0120ident": 6271, "\u0120identcal": 6272, "\u0120fur": 6273, "\u0120further": 6274, "\u0120exit": 6275, "\u0120doesnt": 6276, "\u0120doe": 6277, "\u0120doean": 6278, "\u0120coverd": 6279, "\u0120condi": 6280, "\u0120condit": 6281, "\u0120conditon": 6282, "\u0120conditonal": 6283, "\u0120conditonally": 6284, "\u0120comb": 6285, "\u0120combined": 6286, "\u0120chec": 6287, "\u0120clo": 6288, "\u0120bt": 6289, "\u0120asp": 6290, "\u0120aspect": 6291, "\u0120alrea": 6292, "\u0120alread": 6293, "\u0120already": 6294, "\u0120accpe": 6295, "\u0120accpeted": 6296, "\u0120[!~(": 6297, "\u0120VTULPs": 6298, "\u0120VTULNs": 6299, "\u0120VTLPs": 6300, "\u0120VTLNs": 6301, "\u0120VTHPs": 6302, "\u0120VTHNs": 6303, "\u0120TSVs": 6304, "\u0120PWELn": 6305, "\u0120POc": 6306, "\u0120PACTx": 6307, "\u0120ODx": 6308, "\u0120NWn": 6309, "\u0120MVMOS": 6310, "\u0120INET": 6311, "\u0120INETRACT": 6312, "\u0120HVPPUi": 6313, "\u0120HVNPUi": 6314, "\u0120Glo": 6315, "\u0120Glob": 6316, "\u0120Global": 6317, "\u0120FLO": 6318, "\u0120FLOOR": 6319, "\u0120Edge": 6320, "\u0120Edges": 6321, "\u0120EBR": 6322, "\u0120Donut": 6323, "\u0120COMM": 6324, "\u0120COMMON": 6325, "\u0120CBR": 6326, "\u0120BCO": 6327, "\u0120AV": 6328, "\u0120=((": 6329, "\u0120244": 6330, "\u0120178": 6331, "\u0120136": 6332, "\u0120130": 6333, "\u0120+/": 6334, "\u0120+/-": 6335, "{{{": 6336, "ward": 6337, "viax": 6338, "sen": 6339, "related": 6340, "real": 6341, "iph": 6342, "ipher": 6343, "ipheral": 6344, "ias": 6345, "ext": 6346, "ertical": 6347, "die": 6348, "dat": 6349, "data": 6350, "chip": 6351, "cide": 6352, "after": 6353, "VTx": 6354, "VRWSTP": 6355, "VPPUi": 6356, "VIOLATE": 6357, "VNPUi": 6358, "VGATE": 6359, "TRIANGLE": 6360, "RRTEON": 6361, "RRTEONR": 6362, "PRBOUNDARY": 6363, "POEN": 6364, "PMDMY": 6365, "OSE": 6366, "ODx": 6367, "NOFMONOSCELL": 6368, "Nf": 6369, "MVPP": 6370, "MVNP": 6371, "MGPO": 6372, "LAYE": 6373, "HALF": 6374, "FIND": 6375, "ERG": 6376, "EBR": 6377, "Either": 6378, "DR": 6379, "CTCFMONOSCELL": 6380, "CTCCET": 6381, "CHECKx": 6382, "BJTTDMY": 6383, "BCOR": 6384, "98": 6385, "975": 6386, "825": 6387, "330": 6388, "244": 6389, "215": 6390, "143": 6391, "132": 6392, "1250": 6393, "033": 6394, ".>=": 6395, "-^": 6396, ",^": 6397, ").(": 6398, "))}": 6399, "',": 6400, "\")),": 6401, "\u0120\u0120\u0120\u0120\u0120\u0120\u0120\u0120\u0120\u0120\u0120\u0120\u0120\u0120\u0120\u0120\u0120\u0120\u0120\u0120\u0120\u0120\u0120\u010a\u0120": 6402, "\u0120\u0120\u0120\u0120\u010a": 6403, "\u0120\u010a\u0120\u0120\u0120\u0120\u0120\u0120\u0120\u0120\u0120\u0120\u0120\u0120\u0120\u0120\u0120\u0120": 6404, "\u0120\u010a\u0120\u0120\u0120\u0120\u0120\u0120\u0120\u0120\u0120\u0120\u0120\u0120\u0120\u0120\u0120": 6405, "\u0120{{{{{{{{": 6406, "\u0120{\"": 6407, "\u0120za": 6408, "\u0120zapping": 6409, "\u0120vio": 6410, "\u0120violate": 6411, "\u0120underfill": 6412, "\u0120unw": 6413, "\u0120unwan": 6414, "\u0120unwanted": 6415, "\u0120unrelated": 6416, "\u0120umx": 6417, "\u0120suppre": 6418, "\u0120suppress": 6419, "\u0120sus": 6420, "\u0120strained": 6421, "\u0120sub": 6422, "\u0120subst": 6423, "\u0120substra": 6424, "\u0120substract": 6425, "\u0120sa": 6426, "\u0120sati": 6427, "\u0120satis": 6428, "\u0120satisfied": 6429, "\u0120redundancy": 6430, "\u0120ra": 6431, "\u0120rather": 6432, "\u0120propo": 6433, "\u0120propos": 6434, "\u0120proposal": 6435, "\u0120path": 6436, "\u0120para": 6437, "\u0120parasi": 6438, "\u0120parasitic": 6439, "\u0120needed": 6440, "\u0120minum": 6441, "\u0120minumum": 6442, "\u0120mic": 6443, "\u0120micro": 6444, "\u0120mold": 6445, "\u0120molding": 6446, "\u0120modes": 6447, "\u0120mer": 6448, "\u0120merg": 6449, "\u0120lead": 6450, "\u0120insdie": 6451, "\u0120its": 6452, "\u0120forward": 6453, "\u0120force": 6454, "\u0120fix": 6455, "\u0120free": 6456, "\u0120expcept": 6457, "\u0120enclosured": 6458, "\u0120dosen": 6459, "\u0120disch": 6460, "\u0120discharge": 6461, "\u0120direc": 6462, "\u0120direcd": 6463, "\u0120direcdtion": 6464, "\u0120determ": 6465, "\u0120determined": 6466, "\u0120degrees": 6467, "\u0120coincide": 6468, "\u0120closed": 6469, "\u0120chech": 6470, "\u0120cheching": 6471, "\u0120correct": 6472, "\u0120clea": 6473, "\u0120clearan": 6474, "\u0120clearance": 6475, "\u0120buil": 6476, "\u0120build": 6477, "\u0120been": 6478, "\u0120bip": 6479, "\u0120bipola": 6480, "\u0120bipolar": 6481, "\u0120assigned": 6482, "\u0120abn": 6483, "\u0120abnor": 6484, "\u0120abnorm": 6485, "\u0120abnormal": 6486, "\u0120Waived": 6487, "\u0120VTULPia": 6488, "\u0120VTULNia": 6489, "\u0120VTUH": 6490, "\u0120VTLPia": 6491, "\u0120VTLNia": 6492, "\u0120VTHPia": 6493, "\u0120VTHNia": 6494, "\u0120Vertical": 6495, "\u0120Underfill": 6496, "\u0120Ultra": 6497, "\u0120Stack": 6498, "\u0120Stacking": 6499, "\u0120STRAPs": 6500, "\u0120Sh": 6501, "\u0120Shottky": 6502, "\u0120SSDc": 6503, "\u0120RRule": 6504, "\u0120PSTPu": 6505, "\u0120PPia": 6506, "\u0120POia": 6507, "\u0120Per": 6508, "\u0120Peripheral": 6509, "\u0120ODRuT": 6510, "\u0120ODia": 6511, "\u0120OK": 6512, "\u0120OCT": 6513, "\u0120NXXLP": 6514, "\u0120NWia": 6515, "\u0120NSTPu": 6516, "\u0120NPia": 6517, "\u0120NOTUSEPO": 6518, "\u0120NOTUSEOD": 6519, "\u0120NEGTIVE": 6520, "\u0120Multi": 6521, "\u0120MVPO": 6522, "\u0120MVOD": 6523, "\u0120MICRO": 6524, "\u0120MERG": 6525, "\u0120Long": 6526, "\u0120Keep": 6527, "\u0120Junction": 6528, "\u0120HVNP": 6529, "\u0120HLPW": 6530, "\u0120HLNW": 6531, "\u0120HRE": 6532, "\u0120HREP": 6533, "\u0120HBM": 6534, "\u0120GR": 6535, "\u0120FS": 6536, "\u0120FL": 6537, "\u0120FIC": 6538, "\u0120Enclose": 6539, "\u0120Enclo": 6540, "\u0120Enclou": 6541, "\u0120Enclousure": 6542, "\u0120ERRDPO": 6543, "\u0120CTCNW": 6544, "\u0120CTCFMONOSCELL": 6545, "\u0120CODMY": 6546, "\u0120Coll": 6547, "\u0120Collect": 6548, "\u0120Cha": 6549, "\u0120Chap": 6550, "\u0120Chapter": 6551, "\u0120Ca": 6552, "\u0120Capacit": 6553, "\u0120Capacitance": 6554, "\u0120Bulk": 6555, "\u0120Bond": 6556, "\u0120Bias": 6557, "\u0120APn": 6558, "\u0120@(": 6559, "\u012082": 6560, "\u01207500": 6561, "\u0120772": 6562, "\u012076": 6563, "\u01207600": 6564, "\u012074": 6565, "\u01206200": 6566, "\u0120330": 6567, "\u0120326": 6568, "\u01202888": 6569, "\u012028888": 6570, "\u0120225": 6571, "\u0120190": 6572, "\u0120148": 6573, "\u012013": 6574, "\u0120110": 6575, "\u0120te": 6576, "\u0120temp": 6577, "\u0120temper": 6578, "\u0120temperat": 6579, "\u0120temperature": 6580, "\u0120own": 6581, "\u0120POSI": 6582, "\u0120POSITIVE": 6583, "\u0120...": 6584, "\u0120#": 6585, "\u010a\u0120\u0120\u0120\u010a\u0120\u0120\u0120\u010a\u0120": 6586, "}}}]": 6587, "}}},": 6588, "ummyRule": 6589, "ummyRuleODi": 6590, "sitive": 6591, "row": 6592, "pwell": 6593, "pitch": 6594, "off": 6595, "offered": 6596, "nwell": 6597, "kV": 6598, "excet": 6599, "excetp": 6600, "extension": 6601, "evice": 6602, "cannot": 6603, "cad": 6604, "bgB": 6605, "bgA": 6606, "abut": 6607, "].(": 6608, "].)": 6609, "XT": 6610, "WAIVED": 6611, "Wb": 6612, "Wa": 6613, "VP": 6614, "Underfill": 6615, "Ts": 6616, "SURR": 6617, "SURROUND": 6618, "STACKING": 6619, "SQUARE": 6620, "SHARE": 6621, "SDIE": 6622, "SDE": 6623, "RESPOR": 6624, "RESODR": 6625, "REGIONx": 6626, "RESR": 6627, "Ref": 6628, "RG": 6629, "PSTPu": 6630, "PPS": 6631, "ONLY": 6632, "Only": 6633, "OVP": 6634, "OK": 6635, "NSTPu": 6636, "NPODR": 6637, "NPPR": 6638, "NOTUSE": 6639, "NOTOD": 6640, "NUBM": 6641, "NAT": 6642, "NATIVE": 6643, "MSLD": 6644, "MICRO": 6645, "LVPO": 6646, "LVISO": 6647, "INSDIE": 6648, "ICOVLR": 6649, "HVPMOS": 6650, "HVNMOS": 6651, "HVCO": 6652, "Hig": 6653, "Grow": 6654, "FRH": 6655, "FIC": 6656, "FEX": 6657, "FCB": 6658, "FBE": 6659, "EdgeR": 6660, "EXCEPT": 6661, "Empty": 6662, "DIODES": 6663, "DENSITYq": 6664, "DBx": 6665, "DummyRuleODi": 6666, "Device": 6667, "Density": 6668, "CTCPP": 6669, "CTCNW": 6670, "CTCNP": 6671, "COINCIDENT": 6672, "CBR": 6673, "CP": 6674, "BUTTING": 6675, "APEN": 6676, "ANR": 6677, "ALLq": 6678, "ALLOD": 6679, "All": 6680, "AH": 6681, ">=^": 6682, "=(": 6683, "<=^": 6684, ":{{{": 6685, ":(": 6686, "899": 6687, "7900": 6688, "7400": 6689, "715": 6690, "670": 6691, "6200": 6692, "515": 6693, "4800": 6694, "469": 6695, "444": 6696, "485": 6697, "335": 6698, "275": 6699, "250": 6700, "245": 6701, "1816": 6702, "161": 6703, "116": 6704, "1140": 6705, "049": 6706, "047": 6707, "037": 6708, "036": 6709, "034": 6710, "032": 6711, ".[": 6712, ",{": 6713, "+).": 6714}