{"!": 0, "\"": 1, "#": 2, "$": 3, "%": 4, "&": 5, "'": 6, "(": 7, ")": 8, "*": 9, "+": 10, ",": 11, "-": 12, ".": 13, "/": 14, "0": 15, "1": 16, "2": 17, "3": 18, "4": 19, "5": 20, "6": 21, "7": 22, "8": 23, "9": 24, ":": 25, ";": 26, "<": 27, "=": 28, ">": 29, "?": 30, "@": 31, "A": 32, "B": 33, "C": 34, "D": 35, "E": 36, "F": 37, "G": 38, "H": 39, "I": 40, "J": 41, "K": 42, "L": 43, "M": 44, "N": 45, "O": 46, "P": 47, "Q": 48, "R": 49, "S": 50, "T": 51, "U": 52, "V": 53, "W": 54, "X": 55, "Y": 56, "Z": 57, "[": 58, "\\": 59, "]": 60, "^": 61, "_": 62, "`": 63, "a": 64, "b": 65, "c": 66, "d": 67, "e": 68, "f": 69, "g": 70, "h": 71, "i": 72, "j": 73, "k": 74, "l": 75, "m": 76, "n": 77, "o": 78, "p": 79, "q": 80, "r": 81, "s": 82, "t": 83, "u": 84, "v": 85, "w": 86, "x": 87, "y": 88, "z": 89, "{": 90, "|": 91, "}": 92, "~": 93, "\u00a1": 94, "\u00a2": 95, "\u00a3": 96, "\u00a4": 97, "\u00a5": 98, "\u00a6": 99, "\u00a7": 100, "\u00a8": 101, "\u00a9": 102, "\u00aa": 103, "\u00ab": 104, "\u00ac": 105, "\u00ae": 106, "\u00af": 107, "\u00b0": 108, "\u00b1": 109, "\u00b2": 110, "\u00b3": 111, "\u00b4": 112, "\u00b5": 113, "\u00b6": 114, "\u00b7": 115, "\u00b8": 116, "\u00b9": 117, "\u00ba": 118, "\u00bb": 119, "\u00bc": 120, "\u00bd": 121, "\u00be": 122, "\u00bf": 123, "\u00c0": 124, "\u00c1": 125, "\u00c2": 126, "\u00c3": 127, "\u00c4": 128, "\u00c5": 129, "\u00c6": 130, "\u00c7": 131, "\u00c8": 132, "\u00c9": 133, "\u00ca": 134, "\u00cb": 135, "\u00cc": 136, "\u00cd": 137, "\u00ce": 138, "\u00cf": 139, "\u00d0": 140, "\u00d1": 141, "\u00d2": 142, "\u00d3": 143, "\u00d4": 144, "\u00d5": 145, "\u00d6": 146, "\u00d7": 147, "\u00d8": 148, "\u00d9": 149, "\u00da": 150, "\u00db": 151, "\u00dc": 152, "\u00dd": 153, "\u00de": 154, "\u00df": 155, "\u00e0": 156, "\u00e1": 157, "\u00e2": 158, "\u00e3": 159, "\u00e4": 160, "\u00e5": 161, "\u00e6": 162, "\u00e7": 163, "\u00e8": 164, "\u00e9": 165, "\u00ea": 166, "\u00eb": 167, "\u00ec": 168, "\u00ed": 169, "\u00ee": 170, "\u00ef": 171, "\u00f0": 172, "\u00f1": 173, "\u00f2": 174, "\u00f3": 175, "\u00f4": 176, "\u00f5": 177, "\u00f6": 178, "\u00f7": 179, "\u00f8": 180, "\u00f9": 181, "\u00fa": 182, "\u00fb": 183, "\u00fc": 184, "\u00fd": 185, "\u00fe": 186, "\u00ff": 187, "\u0100": 188, "\u0101": 189, "\u0102": 190, "\u0103": 191, "\u0104": 192, "\u0105": 193, "\u0106": 194, "\u0107": 195, "\u0108": 196, "\u0109": 197, "\u010a": 198, "\u010b": 199, "\u010c": 200, "\u010d": 201, "\u010e": 202, "\u010f": 203, "\u0110": 204, "\u0111": 205, "\u0112": 206, "\u0113": 207, "\u0114": 208, "\u0115": 209, "\u0116": 210, "\u0117": 211, "\u0118": 212, "\u0119": 213, "\u011a": 214, "\u011b": 215, "\u011c": 216, "\u011d": 217, "\u011e": 218, "\u011f": 219, "\u0120": 220, "\u0121": 221, "\u0122": 222, "\u0123": 223, "\u0124": 224, "\u0125": 225, "\u0126": 226, "\u0127": 227, "\u0128": 228, "\u0129": 229, "\u012a": 230, "\u012b": 231, "\u012c": 232, "\u012d": 233, "\u012e": 234, "\u012f": 235, "\u0130": 236, "\u0131": 237, "\u0132": 238, "\u0133": 239, "\u0134": 240, "\u0135": 241, "\u0136": 242, "\u0137": 243, "\u0138": 244, "\u0139": 245, "\u013a": 246, "\u013b": 247, "\u013c": 248, "\u013d": 249, "\u013e": 250, "\u013f": 251, "\u0140": 252, "\u0141": 253, "\u0142": 254, "\u0143": 255, "\u0120\u0120": 256, "\u0120M": 257, "\u010a\u0120": 258, "\u0120=": 259, "\u0120A": 260, "IN": 261, "IA": 262, "RE": 263, "VIA": 264, "\u0120E": 265, "\u01200": 266, "\u0120<": 267, "TE": 268, "er": 269, "\u0120\u0120\u0120\u0120": 270, "\u0120C": 271, "\u0120S": 272, "\u0120O": 273, "\u0120N": 274, "in": 275, "\u0120(": 276, "\u0120>": 277, "nd": 278, "\u0120[": 279, "re": 280, "SI": 281, "of": 282, "um": 283, "\u0120D": 284, "\u0120a": 285, "\u0120{": 286, "\u0120IN": 287, "ER": 288, "\u0120VIA": 289, "on": 290, "DE": 291, "GE": 292, "te": 293, "IO": 294, "\u0120NO": 295, "PO": 296, "err": 297, "UT": 298, "00": 299, "th": 300, "\u0120EX": 301, "REA": 302, "PR": 303, "90": 304, "CT": 305, "\u0120um": 306, "OP": 307, "ol": 308, "\u0120RE": 309, "DGE": 310, "\u0120AB": 311, "\u0120@": 312, "\u0120ABUT": 313, "end": 314, "RA": 315, "LA": 316, "\u0120NOT": 317, "ti": 318, "ow": 319, "\u012090": 320, "xt": 321, "text": 322, "|>": 323, "oftext": 324, "endoftext": 325, "<|": 326, "\u0120B": 327, "AL": 328, "CH": 329, "AREA": 330, "\u0120L": 331, "TY": 332, "SIDE": 333, "PROP": 334, "id": 335, "ING": 336, "\u0120c": 337, "to": 338, "olt": 339, "Volt": 340, "ET": 341, "ION": 342, "GION": 343, "or": 344, "\u0120err": 345, "al": 346, "\u0120in": 347, "DM": 348, "\u0120>=": 349, "\u0120CO": 350, "\u0120REGION": 351, "ce": 352, "LE": 353, "\u0120==": 354, "10": 355, "\u0120s": 356, "ing": 357, "\u010a\u0120\u0120": 358, "ty": 359, "11": 360, "\u0120INTE": 361, "\u0120to": 362, "\u0120\u0120\u0120\u0120\u0120\u0120\u0120\u0120": 363, "EN": 364, "\u0120m": 365, "CHK": 366, "xd": 367, "\u0120AN": 368, "\u0120EXT": 369, "ed": 370, "\u0120of": 371, "le": 372, "\u01201": 373, "TH": 374, "\u0120d": 375, "\u0120OP": 376, "\u0120OPPO": 377, "\u0120OPPOSI": 378, "\u0120OPPOSITE": 379, "\u0120EDGE": 380, "\u0120b": 381, "tion": 382, "is": 383, ")]": 384, "RACT": 385, "DN": 386, "\u0120INTERACT": 387, "SR": 388, "PROPER": 389, "PROPERTY": 390, "12": 391, "ro": 392, "\u0120p": 393, "DMY": 394, "FM": 395, "\u0120f": 396, "CA": 397, "\u0120INSIDE": 398, "\u0120V": 399, "et": 400, "ec": 401, "en": 402, "\u0120AL": 403, "EDGE": 404, "LAY": 405, "ATE": 406, "\u0120DFM": 407, "LAYER": 408, "ID": 409, "\u0120NET": 410, "ig": 411, "low": 412, "CB": 413, "\u0120-": 414, "))": 415, "an": 416, "\u0120G": 417, "\u0120T": 418, "pa": 419, "ULA": 420, "\u0120W": 421, "GLE": 422, "\u0120R": 423, "\u0120w": 424, "13": 425, "\u0120EN": 426, "la": 427, "Low": 428, "CO": 429, "igh": 430, "\u0120SR": 431, "\u0120BY": 432, "\u0120n": 433, "TEN": 434, "\u0120PROPERTY": 435, "High": 436, "\u0120OR": 437, "LO": 438, "CS": 439, "pace": 440, "\u0120pro": 441, "\u01202": 442, "EX": 443, "\u0120\u0120\u010a\u0120": 444, "\u0120and": 445, "per": 446, "LT": 447, "idth": 448, "\u0120proper": 449, "\u0120property": 450, "ide": 451, "\u0120are": 452, "\u0120is": 453, "LY": 454, "15": 455, "\u0120<=": 456, "AN": 457, "\u0120SING": 458, "ULAR": 459, "\u0120SINGULAR": 460, "\u0120DM": 461, "GATE": 462, "40": 463, "!!": 464, "\u0120EXTEN": 465, "\u0120no": 466, "etal": 467, ",\"": 468, "\u0120I": 469, "xdx": 470, "xdy": 471, "DED": 472, "\u0120or": 473, "yn": 474, "syn": 475, "rec": 476, "\u0120AND": 477, "\u0120My": 478, "lo": 479, "ve": 480, "\u0120ALL": 481, "\u0120CH": 482, "14": 483, "\u0120not": 484, "\u0120^": 485, "SE": 486, "\u0120EXTENDED": 487, "MD": 488, "02": 489, "IP": 490, "\u0120di": 491, "DB": 492, "ALL": 493, "\u0120th": 494, "NET": 495, "\u0120area": 496, "\u0120al": 497, "CD": 498, "60": 499, "\u0120\u010a\u0120": 500, "\u010a\u010a\u0120": 501, "REF": 502, "MP": 503, "\u0120OD": 504, "at": 505, "NLY": 506, "ge": 507, "ar": 508, "\u0120ANGLE": 509, "\u0120ONLY": 510, "CC": 511, "OPY": 512, "\u0120COPY": 513, "UM": 514, "\u0120,": 515, "ch": 516, "\u0120COIN": 517, "EC": 518, "st": 519, "\u0120F": 520, "CE": 521, "lowed": 522, "\u0120allowed": 523, "\u0120the": 524, "\u0120direc": 525, "SO": 526, "\u0120mu": 527, "\u0120direction": 528, "\u0120P": 529, "\u0120AREA": 530, "80": 531, "\u0120metal": 532, "03": 533, "\u0120*": 534, "RING": 535, "si": 536, "\u0120SE": 537, "\u0120REC": 538, "ou": 539, "05": 540, "ALRING": 541, ")*": 542, "OD": 543, "UP": 544, "45": 545, "xe": 546, "ITH": 547, "CDDMY": 548, "hi": 549, "Ex": 550, "ition": 551, "MPTY": 552, "PRL": 553, "\u0120Space": 554, "OT": 555, "tive": 556, "\u0120SEALRING": 557, "\u0120Mx": 558, "ran": 559, "\u0120WITH": 560, "cep": 561, "hip": 562, "\")]": 563, "cept": 564, "\u0120ACC": 565, "ng": 566, "\u010a\u0120\u0120\u0120\u0120\u0120\u0120\u0120\u0120": 567, "\u0120ENC": 568, "\u0120must": 569, "ith": 570, "ULT": 571, "ranch": 572, "\u0120\u0120\u0120\u0120\u0120\u0120": 573, "DIO": 574, "\u0120MULT": 575, "\u0120MULTI": 576, "\u0120INT": 577, "Except": 578, "IM": 579, "\u0120X": 580, "\u0120be": 581, "OR": 582, "NOT": 583, "onn": 584, "\u0120by": 585, "ula": 586, "16": 587, "\u0120CHIP": 588, "\u0120]": 589, "RAM": 590, "18": 591, "\u0120TCDDMY": 592, "onnec": 593, "width": 594, "\u0120H": 595, "RID": 596, "\u0120RDB": 597, "VL": 598, "LOB": 599, "LOBAL": 600, "\u0120:": 601, "COVL": 602, "UN": 603, "AD": 604, "NETID": 605, "LOBALNETID": 606, "\u0120le": 607, "\u0120e": 608, "RAT": 609, "\u0120\"": 610, "es": 611, "INP": 612, "\u0120CON": 613, "\u0120PO": 614, "RATIO": 615, "ensi": 616, "\u0120ALSO": 617, "eg": 618, "ON": 619, "ound": 620, "ensity": 621, "07": 622, "ary": 623, "\u0120side": 624, "\u0120RATIO": 625, "GTH": 626, "oundary": 627, "\",": 628, "\u0120?": 629, "ating": 630, "\u0120fol": 631, "\u0120follow": 632, "\u0120LAYER": 633, "loating": 634, "pre": 635, "TED": 636, "NEC": 637, "NECTED": 638, "\u0120with": 639, ")+": 640, "ure": 641, "TM": 642, "AR": 643, "CTM": 644, "\u0120CTM": 645, "PRE": 646, "\u0120co": 647, "NC": 648, "YNC": 649, "HP": 650, "\u0120space": 651, "\u0120-=": 652, "ANGLE": 653, "\u0120CSR": 654, "\u0120ICOVL": 655, "ter": 656, "17": 657, "\u0120VT": 658, "Ng": 659, "MA": 660, "umula": 661, "umulative": 662, "URE": 663, "SURE": 664, "UTSIDE": 665, "\u0120o": 666, "\u0120connec": 667, "CSR": 668, "\u0120OUTSIDE": 669, "50": 670, "20": 671, "\u0120ME": 672, "rep": 673, "UNT": 674, "VER": 675, "OM": 676, "CTANGLE": 677, "ha": 678, "\u0120t": 679, "ver": 680, "\u0120CONNECTED": 681, "\u0120following": 682, "\u0120Branch": 683, "ers": 684, "side": 685, "AP": 686, "\u0120re": 687, "END": 688, "\u0120on": 689, "\u0120!!": 690, "\u0120RECTANGLE": 691, "LL": 692, "ndition": 693, "\u0120LUP": 694, "005": 695, "\u0120condition": 696, "eck": 697, "LN": 698, "\u0120conditions": 699, "RR": 700, "\u0120width": 701, "los": 702, "clos": 703, "OG": 704, "\u0120+": 705, "\u0120VIAy": 706, "ngth": 707, "hap": 708, "080": 709, "CR": 710, "\u0120OVER": 711, "100": 712, ")-": 713, "CMD": 714, "PT": 715, "ion": 716, "heck": 717, "ang": 718, "CM": 719, "ACT": 720, "IZ": 721, ")/": 722, "im": 723, "CEPT": 724, "\u0120DUM": 725, "\u0120h": 726, "\u0120SYNC": 727, "\u0120inside": 728, "\u0120r": 729, "ia": 730, "orn": 731, "\u0120\u0120\u0120\u0120\u010a\u0120": 732, "Pre": 733, "\u0120OF": 734, "edge": 735, "\u0120LEN": 736, "\u0120LENGTH": 737, "\u0120Chip": 738, "xex": 739, "\u0120((": 740, "\u0120FB": 741, "closure": 742, "xey": 743, "EMPTY": 744, "CK": 745, "DO": 746, "\u0120COUNT": 747, "\u012045": 748, "ly": 749, "CTING": 750, "\u0120INTER": 751, "\u0120INTERSE": 752, "\u0120INTERSECTING": 753, "\u0120\u0120\u0120\u0120\u0120": 754, "\u0120MEA": 755, "\u0120MEASURE": 756, "\u0120PR": 757, "\u0120OVERLA": 758, "\u0120OVERLAP": 759, "IG": 760, "ingle": 761, "\u0120ERR": 762, "\u0120CB": 763, "\u0120corn": 764, "020": 765, "imum": 766, "\u010a\u0120\u0120\u0120": 767, "\u0120GRID": 768, "\u0120EMPTY": 769, "Boundary": 770, "24": 771, "\u0120for": 772, "ef": 773, "\u0120EXC": 774, "rr": 775, "SRAM": 776, "LK": 777, "\u0120MIM": 778, "ain": 779, "\u0120g": 780, "mp": 781, "SD": 782, "\u0120SIZ": 783, "LTA": 784, "}}": 785, "mpty": 786, "\u0120cumulative": 787, "\u0120NOD": 788, "\u0120NODAL": 789, "\u0120length": 790, "up": 791, "CPO": 792, "top": 793, "CON": 794, "\u0120CHK": 795, "ax": 796, "\u0120ORTH": 797, "\u0120chip": 798, "rom": 799, "pp": 800, "\u0120sides": 801, "ECK": 802, "\u0120Ex": 803, "IGH": 804, "\u0120MINP": 805, "\u0120l": 806, "EXT": 807, "efin": 808, "dow": 809, "VT": 810, "REC": 811, "ts": 812, "060": 813, "Mx": 814, "density": 815, "INSIDE": 816, "\u0120ACCUM": 817, "\u0120ACCUMULA": 818, "\u0120ACCUMULATE": 819, "NW": 820, "\u0120se": 821, "GLOBALNETID": 822, "efinition": 823, "\u0120main": 824, "\u0120GLOBALNETID": 825, "\u0120)": 826, "\u0120ORTHOG": 827, "\u0120ORTHOGON": 828, "\u0120ORTHOGONAL": 829, "\u0120Ey": 830, "CHECK": 831, "IDTH": 832, "CHIP": 833, "od": 834, "\u0120Definition": 835, "ST": 836, "NOTATE": 837, "06": 838, "indow": 839, "lay": 840, "\u0120floating": 841, "MIM": 842, "hapes": 843, "cal": 844, "\u0120ang": 845, "\u0120angle": 846, "\u0120Shapes": 847, "INT": 848, "\u0120BLK": 849, "wi": 850, "0005": 851, "hecked": 852, "NER": 853, "\u0120connect": 854, "ree": 855, "\u0120x": 856, "\u0120edge": 857, "tal": 858, "egree": 859, "\u0120window": 860, "CAP": 861, "TEX": 862, "BAD": 863, "My": 864, "dge": 865, "MINP": 866, "ther": 867, "000": 868, "iz": 869, "OLTA": 870, "OLTAGE": 871, "ine": 872, "076": 873, "\u0120WIDTH": 874, "aximum": 875, "\u0120seal": 876, "EXC": 877, "\u0120do": 878, "el": 879, "we": 880, "ween": 881, "etween": 882, "PA": 883, "GRID": 884, "TEXT": 885, "\u0120COD": 886, "\u0120density": 887, "\u0120Ris": 888, "\u0120Risk": 889, "\u0120does": 890, "\u0120Th": 891, "tical": 892, "\u0120VOLTAGE": 893, "\u010a\u0120\u0120\u010a\u0120": 894, "\u0120empty": 895, "angle": 896, "gion": 897, "Edge": 898, "\u0120&": 899, "\u0120CBM": 900, "\u0120top": 901, "\u0120between": 902, "BY": 903, "\u0120lay": 904, "\u0120CMA": 905, "\u0120CMACR": 906, "\u0120CMACRO": 907, "\u0120PP": 908, "\u0120VIAx": 909, "net": 910, "\u010a\u0120\u0120\u0120\u0120\u0120\u0120\u0120\u0120\u0120\u0120\u0120\u0120\u0120\u0120\u0120\u0120": 911, "vp": 912, "vpM": 913, "OvpM": 914, "DV": 915, "\u0120CM": 916, "\u0120&&": 917, "ANNOTATE": 918, "ri": 919, "\u01204": 920, "Floating": 921, "\u0120TO": 922, "OLE": 923, "Via": 924, "oriz": 925, "orizon": 926, "orizontal": 927, "ct": 928, "og": 929, "POLY": 930, "300": 931, "\u010a\u0120\u0120\u0120\u0120\u0120\u0120": 932, "\u0120at": 933, "__": 934, "ay": 935, "tern": 936, "\u0120ENCLO": 937, "\u0120SRAM": 938, "\u0120NOEMPTY": 939, "\u0120En": 940, "attern": 941, "\u0120DMV": 942, "AND": 943, "\u0120pattern": 944, "\u010a\u010a\u0120\u0120": 945, "\u0120region": 946, "\u0120EXCEPT": 947, "\u0120[!!": 948, "RP": 949, "\u0120[-": 950, "((": 951, "\u0120line": 952, "RC": 953, "\u0120Mxa": 954, "\u0120other": 955, "\u0120corners": 956, "CAi": 957, "ut": 958, "04": 959, "SITY": 960, "\u0120areas": 961, "CBi": 962, "MAX": 963, "76": 964, "040": 965, "\u010a\u0120\u0120\u0120\u0120\u0120\u0120\u0120\u0120\u0120\u0120\u0120\u0120\u0120\u0120": 966, "my": 967, "AX": 968, "OOD": 969, "QR": 970, "\u0120horizontal": 971, "ACTOR": 972, "CELL": 973, "\u0120Mn": 974, "FACTOR": 975, "ring": 976, "MY": 977, "riangle": 978, "\u0120DEN": 979, "\u0120triangle": 980, "MIN": 981, "SF": 982, "DF": 983, "Err": 984, "\u0120[-=": 985, "\u0120{{": 986, "Branch": 987, "SIZ": 988, "0300": 989, "\u0120NW": 990, "SIZE": 991, "\u0120CPO": 992, "19": 993, "\u0120MD": 994, "HOLE": 995, "\u0120en": 996, "\u0120Enclosure": 997, "vertical": 998, "se": 999, "qu": 1000, "EL": 1001, "PACE": 1002, "\u0120MOM": 1003, "TEP": 1004, "INF": 1005, "INFET": 1006, "single": 1007, "boundary": 1008, "\u01203": 1009, "\u0120degree": 1010, "\u0120STEP": 1011, "\u0120\u0120\u0120": 1012, "\u0120Width": 1013, "ance": 1014, "are": 1015, "PAND": 1016, "~(": 1017, "RNER": 1018, "\u0120an": 1019, "\u0120Maximum": 1020, "MOM": 1021, "\u0120Mya": 1022, "TCD": 1023, "08": 1024, "FI": 1025, "BAR": 1026, "\u0120SQR": 1027, "\u0120NP": 1028, "\u0120from": 1029, "\u0120ISO": 1030, "\u0120DV": 1031, "ule": 1032, "\u0120rec": 1033, "\u0120NOP": 1034, "\u0120NOPSE": 1035, "\u0120NOPSEU": 1036, "\u0120NOPSEUDO": 1037, "lag": 1038, "\u0120\u010a\u0120\u0120": 1039, "22": 1040, "REGION": 1041, "25": 1042, "\u010a\u010a": 1043, "Mer": 1044, "me": 1045, "DNW": 1046, "\u0120GOOD": 1047, "LDB": 1048, "ged": 1049, "\u0120FM": 1050, "ate": 1051, "Pi": 1052, "TN": 1053, "\u0120SIZING": 1054, "LEN": 1055, "\u0120IMD": 1056, "VE": 1057, "UCH": 1058, "\u0120TOUCH": 1059, "\u0120FMAX": 1060, "\u0120FINFET": 1061, "LENGTH": 1062, "038": 1063, "70": 1064, "\u0120u": 1065, "240": 1066, "OJ": 1067, "\u0120DC": 1068, "Wide": 1069, "DOW": 1070, "EXCEPT": 1071, "INDOW": 1072, "\u0120PROJ": 1073, "\u0120EMPTYi": 1074, "MDMY": 1075, ")*(": 1076, "\u0120rect": 1077, "\u0120DENSITY": 1078, "\u0120connection": 1079, "\u0120ad": 1080, "\u0120enclosure": 1081, "men": 1082, "onal": 1083, "\u0120leve": 1084, "\u0120level": 1085, "DUM": 1086, "\u0120NMINP": 1087, "OL": 1088, "\u0120/": 1089, "\u0120orth": 1090, "\u0120orthog": 1091, "\u0120orthogonal": 1092, "\u0120rule": 1093, "ummy": 1094, "ff": 1095, "verla": 1096, "sp": 1097, "Merged": 1098, "VIAy": 1099, "\u0120WINDOW": 1100, "\u0120SRM": 1101, "verlap": 1102, "120": 1103, "\u0120flag": 1104, "ect": 1105, "\u0120!": 1106, "\u0120$": 1107, "SION": 1108, "PREC": 1109, "PRECI": 1110, "PRECISION": 1111, "\u0120PRL": 1112, "38": 1113, "egion": 1114, "ular": 1115, "quare": 1116, "LOW": 1117, "pping": 1118, "rid": 1119, "\u0120PRINT": 1120, "angular": 1121, "\u0120SIZE": 1122, "\u0120grid": 1123, "CBM": 1124, "oth": 1125, "CP": 1126, "ACK": 1127, "tepping": 1128, "\u0120vertical": 1129, "\u0120ac": 1130, "\u0120DRC": 1131, "EMPTYi": 1132, "\u0120BACK": 1133, "\u0120BACKUP": 1134, "\u0120IND": 1135, "\u0120gate": 1136, "Region": 1137, "050": 1138, "dx": 1139, "COD": 1140, "FB": 1141, "lti": 1142, "dn": 1143, "\u0120multi": 1144, "FGRID": 1145, "\u0120OFFGRID": 1146, "ll": 1147, "TIGH": 1148, "Single": 1149, "SingleVia": 1150, "\u0120bar": 1151, "\u0120v": 1152, "ame": 1153, "\u0120BAD": 1154, "\u0120square": 1155, "\u0120ex": 1156, "FS": 1157, "VG": 1158, "OS": 1159, "09": 1160, "\u0120stepping": 1161, "all": 1162, "cumulative": 1163, "\u0120CCP": 1164, "upOvpM": 1165, "upOvpMdn": 1166, "\u0120CORNER": 1167, "ple": 1168, "ments": 1169, "\u0120multiple": 1170, "\u0120seg": 1171, "\u0120segments": 1172, "150": 1173, "ger": 1174, "SING": 1175, "SINGLE": 1176, "ute": 1177, "TOL": 1178, "0250": 1179, "\u0120angles": 1180, "\u0120acute": 1181, "\u0120LAYERS": 1182, "))]": 1183, "SS": 1184, "\u0120VG": 1185, "\u0120inte": 1186, "\u0120integer": 1187, "\u0120patterns": 1188, "Cut": 1189, "\u0120rectangular": 1190, "Vi": 1191, "30": 1192, "\u0120corner": 1193, "connec": 1194, "hape": 1195, "osi": 1196, ")),": 1197, "\u0120opp": 1198, "\u0120opposi": 1199, "\u0120opposite": 1200, "\u0120GATE": 1201, "\u0120This": 1202, "\u0120SD": 1203, "\u0120Lay": 1204, "TCDDMY": 1205, "\u0120one": 1206, "\u0120st": 1207, "\u0120checked": 1208, "RST": 1209, "ERR": 1210, "shape": 1211, "RDB": 1212, "\u0120PW": 1213, "ACC": 1214, "\u0120Metal": 1215, "\u0120both": 1216, "umb": 1217, "LLE": 1218, "RO": 1219, "COND": 1220, "\u0120PA": 1221, "\u0120Layers": 1222, "tor": 1223, "connects": 1224, "ective": 1225, "ation": 1226, "\u0120PARA": 1227, "\u0120PARALLE": 1228, "\u0120PARALLEL": 1229, "VEX": 1230, "FILL": 1231, "ood": 1232, "\u0120FI": 1233, ")+!": 1234, "\u0120resp": 1235, "\u0120respective": 1236, "LOCK": 1237, "BLOCK": 1238, "114": 1239, "hor": 1240, "\u0120Myy": 1241, "\u0120DTCD": 1242, "dy": 1243, "MOS": 1244, "\u0120CHIPa": 1245, "ole": 1246, "uct": 1247, "LUP": 1248, "VC": 1249, "hort": 1250, "rGATE": 1251, "Mn": 1252, "21": 1253, "if": 1254, "TIGHTEN": 1255, "ode": 1256, "\u0120SPACE": 1257, "from": 1258, "\u0120DUMMY": 1259, "1000": 1260, "VMIN": 1261, "VMAX": 1262, "GT": 1263, "\u0120SLDB": 1264, "\u0120respectively": 1265, "hk": 1266, "SYNC": 1267, "\u0120ring": 1268, "rea": 1269, "de": 1270, "\u0120add": 1271, "WB": 1272, "\u0120str": 1273, "rt": 1274, "34": 1275, "360": 1276, "\u010a\u010a\u010a\u0120": 1277, "\u0120layer": 1278, "0200": 1279, "\u0120ENCLOSURE": 1280, ")))": 1281, "\u0120VD": 1282, "umber": 1283, "CHAR": 1284, "CHARGE": 1285, "\u0120nm": 1286, "\u0120connections": 1287, "\u010a\u0120\u0120\u0120\u0120\u0120\u0120\u0120": 1288, "ta": 1289, "\u0120BranchSingleVia": 1290, "EW": 1291, "\u012020": 1292, "\u0120Checked": 1293, "UND": 1294, "\u0120inter": 1295, "\u0120GRP": 1296, "elta": 1297, "olation": 1298, "\u0120doesn": 1299, "out": 1300, "\u0120RH": 1301, "Chk": 1302, "ent": 1303, "\u0120The": 1304, "ower": 1305, "\u01205": 1306, "\u0120struct": 1307, "\u0120structure": 1308, "onCPO": 1309, "NonCPO": 1310, "ODE": 1311, "\u0120IO": 1312, "\u0120MP": 1313, "\u010a\u0120\u0120\u0120\u0120": 1314, "wo": 1315, "\u0120EXPAND": 1316, "ffect": 1317, "AB": 1318, "RES": 1319, "\u0120ENCLOSE": 1320, "!!!!": 1321, "WF": 1322, ">=": 1323, "\u0120hole": 1324, "\u0120VIAxa": 1325, "\u0120Lower": 1326, "roup": 1327, "075": 1328, "\u0120con": 1329, "\u0120SRAMDMY": 1330, "\u0120Err": 1331, "\u0120CHIPb": 1332, "ell": 1333, "as": 1334, "xMerged": 1335, "ong": 1336, "tio": 1337, "atio": 1338, "GRP": 1339, "ND": 1340, "lu": 1341, "\u0120[(": 1342, "anced": 1343, "58": 1344, "IF": 1345, "\u0120check": 1346, "\u0120ca": 1347, "\u0120VIAya": 1348, "\u0120Mtop": 1349, "hen": 1350, "\u0120!=": 1351, "015": 1352, "\u0120(!": 1353, "\u0120ratio": 1354, "\u012010": 1355, "IE": 1356, "ERGE": 1357, "\u0120effect": 1358, "\u0120GND": 1359, "\u0120SH": 1360, "\u0120ACT": 1361, "TER": 1362, "AT": 1363, "\u0120DNW": 1364, "act": 1365, "\u0120Lar": 1366, "\u0120Large": 1367, "\u0120LargeN": 1368, "\u0120LargeNumber": 1369, "\u0120if": 1370, "LU": 1371, "DMy": 1372, "ast": 1373, "\u0120interact": 1374, "\u0120DVIA": 1375, "EXD": 1376, "64": 1377, "COUNT": 1378, "\u0120fi": 1379, "0000": 1380, "\u0120LOG": 1381, "\u0120LOGO": 1382, "with": 1383, "\u0120Dummy": 1384, "ted": 1385, "HIGH": 1386, "inimum": 1387, "LP": 1388, "\u0120\u0120\u010a\u0120\u0120": 1389, "ne": 1390, "\u0120CMD": 1391, "RMDMY": 1392, "pac": 1393, "140": 1394, "IVE": 1395, "Cell": 1396, "\u0120CSRDMY": 1397, "EXPAND": 1398, "\u0120VIAtop": 1399, "clu": 1400, "VD": 1401, "034": 1402, "==": 1403, "DUMMY": 1404, "\u0120EC": 1405, "li": 1406, "\u0120ABS": 1407, "VIAx": 1408, "ABS": 1409, "ICOVL": 1410, "length": 1411, "\u0120EXTENT": 1412, "\u0120delta": 1413, "\u0120when": 1414, "65": 1415, "FLO": 1416, "\u0120MupOvpMdn": 1417, "FLOAT": 1418, "asVia": 1419, "HasVia": 1420, "058": 1421, "\u0120same": 1422, "\u0120long": 1423, "\u0120SF": 1424, "\u0120DF": 1425, "\u0120diode": 1426, "alanced": 1427, "\u0120\u010a\u0120\u0120\u0120\u0120": 1428, "Mxa": 1429, "\u0120Mz": 1430, "GRO": 1431, "FLOATING": 1432, "CONNECTED": 1433, "024": 1434, "\u0120TrGATE": 1435, "NE": 1436, "XP": 1437, "Area": 1438, "Overlap": 1439, "Group": 1440, "\u0120VxMerged": 1441, "jec": 1442, "\u0120CONVEX": 1443, "\u0120least": 1444, "27": 1445, "\u0120ts": 1446, "\u0120tsm": 1447, "\u0120tsmc": 1448, "\u0120Y": 1449, "\u012050": 1450, "mm": 1451, "\u0120all": 1452, "\u0120\u0120\u0120\u0120\u0120\u0120\u0120\u0120\u0120\u0120\u0120\u0120\u0120\u0120\u0120\u0120": 1453, "\u0120Short": 1454, "HE": 1455, "))*": 1456, "\u010a\u0120\u0120\u0120\u0120\u0120\u0120\u0120\u0120\u0120": 1457, "\u0120\u0120\u0120\u0120\u0120\u0120\u0120": 1458, "\u0120INDDMY": 1459, "ur": 1460, "28": 1461, "\u0120RMDMY": 1462, "\u0120added": 1463, "SPACE": 1464, "LIN": 1465, ")*!": 1466, "\u0120AP": 1467, "\u0120PWR": 1468, "\u0120APi": 1469, "\u0120[~(": 1470, "001": 1471, "Metal": 1472, "Rec": 1473, "\u0120capac": 1474, "\u0120capaci": 1475, "\u0120capacitor": 1476, "ad": 1477, "LUDE": 1478, "\u0120U": 1479, "\u0120Crt": 1480, "THI": 1481, "THICK": 1482, "THICKNE": 1483, "THICKNESS": 1484, "\u0120VTS": 1485, "\u0120node": 1486, "\u0120balanced": 1487, "SZ": 1488, ")*!!": 1489, "\u0120VC": 1490, "63": 1491, "\u0120layers": 1492, "\u0120EXCLUDE": 1493, "FSMIN": 1494, "FSMAX": 1495, "\u0120(((": 1496, "nm": 1497, "EWXP": 1498, "\u0120SHI": 1499, "\u0120SHIEL": 1500, "\u0120SHIELDED": 1501, "PP": 1502, "\u0120overlap": 1503, "EXTEN": 1504, "DRC": 1505, "\u0120POLY": 1506, "GO": 1507, "ase": 1508, "\u0120EXTENTS": 1509, "\u0120cons": 1510, "\u0120VTU": 1511, "\u0120Z": 1512, "ist": 1513, "degree": 1514, "error": 1515, "TI": 1516, "lease": 1517, "INTE": 1518, "age": 1519, "metal": 1520, "\u0120RVi": 1521, "EXTENT": 1522, "INTERACT": 1523, "\u0120MERGE": 1524, "utive": 1525, "ecutive": 1526, "WDMY": 1527, "IND": 1528, "DTCD": 1529, "\u0120error": 1530, "\u0120ANT": 1531, "DEN": 1532, "CAii": 1533, "EF": 1534, "olor": 1535, "SEALRING": 1536, "\u01208": 1537, "ENDIF": 1538, "ore": 1539, "mmend": 1540, "ommend": 1541, "\u0120color": 1542, "DVIA": 1543, "CHIPa": 1544, "ELSE": 1545, "\u0120dummy": 1546, "new": 1547, "62": 1548, "\u0120Mr": 1549, "\u0120CE": 1550, "\u0120CELL": 1551, "ADER": 1552, "\u0120Good": 1553, "ot": 1554, "\u0120VIAyy": 1555, "SDc": 1556, "\u0120VIAz": 1557, "23": 1558, "\u0120consecutive": 1559, "||": 1560, "\u0120Minimum": 1561, "\u0120only": 1562, "urn": 1563, "LINE": 1564, "JT": 1565, "\u0120via": 1566, "SECOND": 1567, "FIRST": 1568, "\u0120turn": 1569, "CMDi": 1570, "SRM": 1571, "DMz": 1572, "\u0120Please": 1573, "CBii": 1574, "\u0120flags": 1575, "DVy": 1576, "TAL": 1577, "ORIZ": 1578, "ORIZON": 1579, "ORIZONTAL": 1580, "\u0120MxR": 1581, "RAP": 1582, "HV": 1583, "Good": 1584, "29": 1585, "RV": 1586, "not": 1587, "cen": 1588, "\u0120HORIZONTAL": 1589, "\u010a\u0120\u0120\u0120\u0120\u0120\u0120\u0120\u0120\u0120\u0120\u0120\u0120\u0120\u0120\u0120\u0120\u0120\u0120\u0120\u0120\u0120\u0120\u0120\u0120": 1590, "\u0120DMn": 1591, "\u0120VER": 1592, "\u0120SECOND": 1593, "\u0120FIRST": 1594, "BJT": 1595, "mb": 1596, "\u0120Via": 1597, "ond": 1598, "Vx": 1599, "semb": 1600, "sembly": 1601, "ssembly": 1602, "260": 1603, "ra": 1604, "\u0120Assembly": 1605, "OUND": 1606, "0600": 1607, "AIVE": 1608, "SLDB": 1609, "\u0120||": 1610, "Big": 1611, "BLK": 1612, "BOUND": 1613, "mall": 1614, "022": 1615, "APi": 1616, "NO": 1617, "0315": 1618, "TOM": 1619, "ommended": 1620, "\u0120BOT": 1621, "\u0120BOTTOM": 1622, "ction": 1623, "0020": 1624, "35": 1625, ").": 1626, "PAD": 1627, "\u0120MOMDMY": 1628, "\u0120GoodBranch": 1629, "\u0120Bad": 1630, "\u0120vi": 1631, "1200": 1632, "011": 1633, "VIAn": 1634, "SCR": 1635, "CORNER": 1636, "\u0120end": 1637, "CONCA": 1638, "VIAz": 1639, "ffer": 1640, "01": 1641, "FU": 1642, "ten": 1643, "CONCAVE": 1644, "CWDMY": 1645, ")/(": 1646, "\u0120isolation": 1647, "\u0120us": 1648, "DFM": 1649, "MupOvpMdn": 1650, "CORE": 1651, "004": 1652, "\u0120FIX": 1653, "VTS": 1654, "124": 1655, "32": 1656, "ither": 1657, "\u0120violation": 1658, "\u0120Empty": 1659, "TIC": 1660, "TICAL": 1661, "UVIA": 1662, "same": 1663, "FIN": 1664, "0400": 1665, "chk": 1666, "DMD": 1667, "BOUNDAR": 1668, "BOUNDARY": 1669, "\u0120cover": 1670, "\u0120BCWDMY": 1671, "ED": 1672, "!!!!<|": 1673, "ja": 1674, "jacen": 1675, "jacent": 1676, "\u0120\u010a\u0120\u0120\u0120\u0120\u0120\u0120\u0120\u0120": 1677, "IGHT": 1678, "\u0120\u0120\u0120\u0120\u0120\u0120\u010a\u0120\u0120": 1679, "\u0120RIGHT": 1680, "\u0120\u010a\u0120\u0120\u0120": 1681, "INNER": 1682, "\u0120LEF": 1683, "\u0120LEFT": 1684, "\u012040": 1685, "oler": 1686, "112": 1687, "\u0120FIXED": 1688, "olerance": 1689, "028": 1690, "\u0120VERTICAL": 1691, "\u0120For": 1692, "UNDER": 1693, "\u0120TOP": 1694, "sion": 1695, "\u0120layout": 1696, "tension": 1697, "\u010a\u0120\u0120\u0120\u0120\u0120\u0120\u0120\u0120\u0120\u0120\u0120\u0120\u0120\u0120\u0120\u0120\u0120\u0120\u0120\u0120\u0120": 1698, "\u0120pla": 1699, "\u0120CHIPx": 1700, "VTU": 1701, "Ui": 1702, "\u0120pre": 1703, "clude": 1704, "\u0120CTMDMY": 1705, "\u0120fu": 1706, "ANODE": 1707, "YP": 1708, "057": 1709, "RM": 1710, "DC": 1711, "maximum": 1712, "0100": 1713, "CCP": 1714, "\u0120ODc": 1715, "26": 1716, "\u010a\u010a\u010a\u010a\u0120": 1717, "LV": 1718, "\u0120180": 1719, "RVi": 1720, "ual": 1721, "\u0120turning": 1722, "\u0120TPO": 1723, "FINAL": 1724, "CONVEX": 1725, "\u0120Action": 1726, "ner": 1727, "vent": 1728, "GOX": 1729, "\u0120prevent": 1730, "raw": 1731, "DENSITY": 1732, "\u0120tolerance": 1733, "\u0120+-": 1734, "0365": 1735, "\u0120TR": 1736, "UR": 1737, "\u0120BV": 1738, "\u0120inner": 1739, "6000": 1740, "DPO": 1741, "Mtop": 1742, "ESD": 1743, "lity": 1744, "\u0120used": 1745, "\u0120af": 1746, "\u0120after": 1747, ")*!!(": 1748, "\u0120un": 1749, "GER": 1750, "den": 1751, "NOCAP": 1752, "IEDMY": 1753, "31": 1754, "URCE": 1755, "SOURCE": 1756, "IGGER": 1757, "Ey": 1758, "un": 1759, "\u0120ha": 1760, "bid": 1761, "istance": 1762, "THODE": 1763, "\u0120DVPA": 1764, "\u0120DVPARAM": 1765, "\u0120DVPARAMS": 1766, "\u0120ANNOTATE": 1767, "VCi": 1768, "\u0120TRIGGER": 1769, "for": 1770, "\u0120ST": 1771, "NMINP": 1772, "RH": 1773, "\u0120IBJT": 1774, "\u0120All": 1775, "NP": 1776, "095": 1777, "0010": 1778, "\u0120uti": 1779, "152": 1780, "\u0120fill": 1781, "\u0120adjacent": 1782, "wall": 1783, "\u0120utility": 1784, "DVz": 1785, "064": 1786, "\u0120as": 1787, "bidden": 1788, "Myy": 1789, "GROUP": 1790, "LR": 1791, "\u012025": 1792, "270": 1793, "enter": 1794, "\u0120that": 1795, "070": 1796, "\u0120filling": 1797, "\u0120DMy": 1798, "\u010a\u0120\u0120\u0120\u0120\u0120\u0120\u0120\u0120\u0120\u0120\u0120\u0120\u0120\u0120\u0120\u0120\u0120\u0120\u0120": 1799, "\u0120162": 1800, "WITH": 1801, "SA": 1802, "\u0120Myx": 1803, "ck": 1804, "\u0120HIA": 1805, "one": 1806, "\u0120Max": 1807, "\u01201000": 1808, "sid": 1809, "]}": 1810, "),": 1811, "1140": 1812, "VTL": 1813, "\u0120CrtPO": 1814, "\u0120short": 1815, "\u0120CUT": 1816, "ENC": 1817, "RIN": 1818, "RINK": 1819, "\u0120VIAr": 1820, "062": 1821, "\u0120\u0120\u010a\u0120\u0120\u010a\u0120": 1822, "\u0120DE": 1823, "\u01209": 1824, "75": 1825, "\u0120plate": 1826, "TrGATE": 1827, "ble": 1828, "FUSE": 1829, "other": 1830, "\u0120BCM": 1831, "\u0120ne": 1832, "\u0120PPUi": 1833, ")+((": 1834, "rBoundary": 1835, "PC": 1836, "016": 1837, "\u0120STRAP": 1838, "\u0120distance": 1839, "\u0120HV": 1840, "\u0120SCR": 1841, "ENTER": 1842, "\u0120net": 1843, "TNB": 1844, "\u0120po": 1845, "ODc": 1846, "STPi": 1847, "ced": 1848, "ching": 1849, "\u010a\u0120\u0120\u0120\u0120\u0120": 1850, "\u0120GRO": 1851, "\u0120At": 1852, "int": 1853, "VGi": 1854, "\u0120follows": 1855, "\u0120CA": 1856, "dmy": 1857, "0760": 1858, "HOLES": 1859, "it": 1860, "\u0120unB": 1861, "\u0120this": 1862, "\u0120DUVIA": 1863, "\u0120TIE": 1864, "\u0120Area": 1865, "GROW": 1866, "\u0120unBal": 1867, "ELi": 1868, "fferent": 1869, "\u0120SVIA": 1870, "\u0120VIAn": 1871, "ca": 1872, "BM": 1873, "\u0120extension": 1874, "hv": 1875, "\u0120\u0120\u0120\u0120\u0120\u0120\u0120\u0120\u0120\u0120": 1876, "\u0120IBJTDMY": 1877, "VIAyy": 1878, "RAY": 1879, "ARRAY": 1880, "cave": 1881, "\u0120injec": 1882, "\u0120injector": 1883, "047": 1884, "090": 1885, "\u0120ful": 1886, "\u0120fully": 1887, "VDi": 1888, "030": 1889, "\u0120{{{": 1890, "\u0120EW": 1891, "162": 1892, "33": 1893, "\u0120can": 1894, "\u0120ESD": 1895, "EWYP": 1896, "gth": 1897, "ength": 1898, "DI": 1899, "\u0120Length": 1900, "\u0120112": 1901, "outer": 1902, "\u0120form": 1903, "20000": 1904, "ach": 1905, ")+!~(": 1906, "\u0120COND": 1907, "\u0120wi": 1908, "\u0120will": 1909, "\u0120MAX": 1910, "\u0120{@": 1911, "\u0120PRBOUNDARY": 1912, "ually": 1913, "Mz": 1914, "\u0120ECy": 1915, "\u0120ECx": 1916, "CATHODE": 1917, "anually": 1918, "%)": 1919, "}]": 1920, "\u0120BPO": 1921, "clud": 1922, "\u0120VIAxs": 1923, "way": 1924, "\u0120FS": 1925, "UTER": 1926, "\u0120\u010a\u0120\u0120\u0120\u0120\u0120\u0120": 1927, "84": 1928, "DELTA": 1929, "\u0120100": 1930, "\u012036000": 1931, "\u0120Rec": 1932, "uar": 1933, "uard": 1934, ")*!~(": 1935, "OUTER": 1936, "\u0120GRPdy": 1937, "\u0120GRPdx": 1938, "\u0120PACT": 1939, "VTUL": 1940, "<=": 1941, "()-": 1942, "\u0120VTLN": 1943, "area": 1944, "\u0120DELTA": 1945, "spond": 1946, "sponding": 1947, "responding": 1948, "orresponding": 1949, "imun": 1950, "HIA": 1951, "\u0120HE": 1952, "\u0120HEADER": 1953, "orner": 1954, "NWi": 1955, "\u0120rectangle": 1956, "MtopN": 1957, "\u0120draw": 1958, "DOD": 1959, "\u0120conn": 1960, "\u0120connn": 1961, "\u0120connnec": 1962, "\u0120connnected": 1963, "ire": 1964, "ANT": 1965, "\u0120two": 1966, "SH": 1967, "VIAxa": 1968, "\u0120VDi": 1969, "\u0120requ": 1970, "\u0120require": 1971, "\u0120VGi": 1972, "\u0120ab": 1973, "\u0120checks": 1974, "4500": 1975, "\u0120sealring": 1976, "\u0120Re": 1977, "\u0120PAD": 1978, "More": 1979, "\u0120270": 1980, ")+!(": 1981, "\u0120sidewall": 1982, "\u0120VIAyx": 1983, "\u0120\u010a\u0120\u0120\u0120\u0120\u0120\u0120\u0120\u0120\u0120\u0120\u0120\u0120\u0120\u0120": 1984, "either": 1985, "\u010a\u010a\u010a\u0120\u0120": 1986, "\u0120Recommended": 1987, "))/": 1988, "\u0120PODE": 1989, "WIN": 1990, "\u0120away": 1991, "fect": 1992, "effect": 1993, "Mr": 1994, "use": 1995, "Th": 1996, "\u0120GROW": 1997, "500": 1998, "infor": 1999, "inforced": 2000, "GOOD": 2001, "HEADER": 2002, "DA": 2003, "008": 2004, "\u0120ORTHO": 2005, "RMDMYn": 2006, "\u0120windows": 2007, "without": 2008, "\u0120\u010a\u010a\u0120": 2009, "\u012010000": 2010, "xa": 2011, "\u0120NWDMY": 2012, "\u0120lo": 2013, "\u0120within": 2014, "\u0120VTSN": 2015, "PW": 2016, "ORG": 2017, "})": 2018, "Mya": 2019, "MERGE": 2020, "\u0120VTULN": 2021, "BC": 2022, "\u0120ran": 2023, "\u0120range": 2024, "INDDMY": 2025, "180": 2026, "WAIVE": 2027, "\u0120VTLP": 2028, "\u0120UNDER": 2029, "\u0120UNDERO": 2030, "\u0120UNDEROVER": 2031, "SDI": 2032, "flag": 2033, "ss": 2034, "\u0120WAIVE": 2035, "\u0120~(": 2036, "\u0120CHB": 2037, "\u0120projec": 2038, "\u0120abut": 2039, "0800": 2040, "\u0120Bal": 2041, "\u0120y": 2042, "JOG": 2043, "SRAMDMY": 2044, "\u0120Forbidden": 2045, "\u0120NWi": 2046, "\u0120DIA": 2047, "\u0120ACTIVE": 2048, "\u0120sear": 2049, "\u0120searching": 2050, "guard": 2051, "CBp": 2052, "CAp": 2053, "36": 2054, "\u0120SDI": 2055, "\u0120#": 2056, "OZ": 2057, "KOZ": 2058, "BranchSingleVia": 2059, "900": 2060, "Lower": 2061, "DIODE": 2062, "VIAr": 2063, "CPODE": 2064, "\u0120Check": 2065, "CHIPx": 2066, "\u0120sh": 2067, "oring": 2068, "ighb": 2069, "ighboring": 2070, "1400": 2071, "61": 2072, "\u0120up": 2073, "rray": 2074, "ONUT": 2075, "Empty": 2076, "\u0120UBM": 2077, "LVMOS": 2078, "\u0120array": 2079, "101": 2080, "0500": 2081, "\u0120Maximun": 2082, "056": 2083, "SCHARGE": 2084, "DISCHARGE": 2085, "\u0120IP": 2086, "\u0120DONUT": 2087, "ENT": 2088, "\u0120manually": 2089, "\u0120covered": 2090, "\u0120MFUSE": 2091, "own": 2092, "\u0120checking": 2093, "\u0120VTULP": 2094, "ssi": 2095, "\u0120possi": 2096, "\u0120\u0120\u0120\u0120\u0120\u0120\u0120\u0120\u0120": 2097, "\u0120VTSP": 2098, "DVr": 2099, "DMr": 2100, "VIEDMY": 2101, "\u0120HOLE": 2102, "\u0120Mu": 2103, "].": 2104, "002": 2105, "MET": 2106, "\u0120Mxs": 2107, "\u0120~": 2108, "5000": 2109, "ment": 2110, "\u0120Floating": 2111, "delta": 2112, "\u0120[!": 2113, "CTMDMY": 2114, "\u0120except": 2115, "\u0120local": 2116, "PACT": 2117, "down": 2118, "RECTANGLE": 2119, "\u0120PSDc": 2120, "DMyy": 2121, "\u0120MPi": 2122, "53": 2123, "\u0120possible": 2124, "PPI": 2125, "\u0120projected": 2126, "81": 2127, "typ": 2128, "\u0120\u010a\u0120\u0120\u010a\u0120": 2129, "DNWR": 2130, "ARN": 2131, "\u0120id": 2132, "\u0120iden": 2133, "\u0120identical": 2134, "\u0120mod": 2135, "\u0120modif": 2136, "\u0120total": 2137, "\u0120j": 2138, "PODE": 2139, "uce": 2140, "55": 2141, "\u0120into": 2142, "PER": 2143, "\u0120CENTER": 2144, "\u010a\u0120\u0120\u0120\u0120\u0120\u0120\u0120\u0120\u0120\u0120\u0120\u0120\u0120": 2145, "WIDTH": 2146, "]]": 2147, "\u0120CHECK": 2148, "ug": 2149, "\u0120EXTEND": 2150, "mg": 2151, "check": 2152, "tions": 2153, "oul": 2154, "ould": 2155, "\u0120low": 2156, "\u0120sug": 2157, "\u0120sugge": 2158, "\u0120sugges": 2159, "\u0120suggestions": 2160, "\u0120minimum": 2161, "8000": 2162, "\u0120more": 2163, "main": 2164, "WARN": 2165, "SRE": 2166, "\u0120each": 2167, "STP": 2168, "\u0120XX": 2169, "\u0120XXX": 2170, "vi": 2171, "igure": 2172, "EXCL": 2173, "57": 2174, "160": 2175, "EP": 2176, "BCM": 2177, "\u0120app": 2178, "\u0120volt": 2179, "\u0120voltage": 2180, "TAP": 2181, "SREZ": 2182, ".>=": 2183, "\u0120CrtMD": 2184, "\u0120modify": 2185, "\u0120has": 2186, "\u0120may": 2187, "98": 2188, "\u0120should": 2189, "\u0120SLR": 2190, ")/((": 2191, "\u0120center": 2192, "\u0120Myz": 2193, "},": 2194, "VIAya": 2195, "xeyi": 2196, "xexi": 2197, "LOD": 2198, "010": 2199, "closed": 2200, "DEF": 2201, "\u0120:(": 2202, "\u0120appli": 2203, "\u0120neighboring": 2204, "019": 2205, "SQR": 2206, "SK": 2207, "\u0120down": 2208, "region": 2209, "0430": 2210, "\u0120any": 2211, "rain": 2212, "HS": 2213, "\u0120SHRINK": 2214, ")}": 2215, "This": 2216, "\u0120op": 2217, "\u0120small": 2218, "\u0120concave": 2219, "\u0120NSDc": 2220, "\u01208000": 2221, "und": 2222, "\u0120INNER": 2223, "\u0120VAR": 2224, "Merge": 2225, "HINT": 2226, "\u0120jog": 2227, "0110": 2228, "\u0120prBoundary": 2229, "\u0120metals": 2230, "\u0120connected": 2231, "NMOS": 2232, "\u0120ANARRAY": 2233, "ove": 2234, "066": 2235, "054": 2236, "\u0120VCi": 2237, "\u0120KOZ": 2238, "ata": 2239, "54": 2240, "045": 2241, "Checked": 2242, "\u0120Is": 2243, "\u0120CAD": 2244, "\u0120group": 2245, "TIGHT": 2246, "\u0120PWELi": 2247, "TCH": 2248, "\u0120different": 2249, "\u0120Ad": 2250, "hole": 2251, "\u0120number": 2252, "\u0120\u0120\u010a\u0120\u0120\u0120\u0120\u0120\u0120\u0120\u0120\u0120\u0120\u0120\u0120\u0120\u0120\u0120\u0120\u0120\u0120\u0120\u0120\u0120\u0120\u0120\u0120": 2253, "ckage": 2254, "\u0120BCMD": 2255, "MW": 2256, "\u0120have": 2257, "WARNING": 2258, "094": 2259, "Space": 2260, "atatyp": 2261, "\u0120(!!": 2262, "PERIM": 2263, "48": 2264, "\u0120cause": 2265, "\u0120blo": 2266, "\u0120blockage": 2267, "\u010a\u0120\u0120\u010a\u010a\u0120": 2268, "VxMerged": 2269, "\u0120Corner": 2270, "\u0120hol": 2271, "\u0120holes": 2272, "LOGO": 2273, "LESS": 2274, "STRAP": 2275, "eq": 2276, "POOL": 2277, "EXP": 2278, "erged": 2279, "SRDMD": 2280, "0380": 2281, "\u0120ti": 2282, "ai": 2283, "\u0120PM": 2284, "\u0120OVERUNDER": 2285, "TPO": 2286, "026": 2287, "\u01205000": 2288, "\u012027": 2289, "\u0120Small": 2290, "0150": 2291, "lative": 2292, "])": 2293, "\u0120\u010a\u0120\u0120\u0120\u0120\u0120\u0120\u0120\u0120\u0120\u0120\u0120\u0120\u0120\u0120\u0120\u0120\u0120\u0120\u0120": 2294, "REL": 2295, "MAND": 2296, "MANDREL": 2297, "SLR": 2298, "87": 2299, "\u0120HOLES": 2300, "\u0120\u010a\u0120\u0120\u0120\u0120\u0120\u0120\u0120\u0120\u0120\u0120": 2301, "\u0120ALLOD": 2302, "land": 2303, "\u0120ABSO": 2304, "\u0120ABSOLU": 2305, "\u0120ABSOLUTE": 2306, "our": 2307, "0050": 2308, "\u0120corresponding": 2309, "\u0120whi": 2310, "\u0120option": 2311, "VxCA": 2312, "0260": 2313, "ETER": 2314, "FINFET": 2315, "RW": 2316, "068": 2317, "line": 2318, "ence": 2319, "\u0120applied": 2320, "\u0120outer": 2321, "SEG": 2322, "HVMOS": 2323, "252": 2324, "META": 2325, "TRA": 2326, "TRACK": 2327, "PERIMETER": 2328, "checking": 2329, "MASK": 2330, "\u0120\u0120\u0120\u0120\u010a\u0120\u0120": 2331, "\u0120Over": 2332, "\u0120Overlay": 2333, "\u0120MAXIM": 2334, "\u0120MAXIMUM": 2335, "0070": 2336, "DMyx": 2337, "\u0120NACT": 2338, "\u010a\u0120\u0120\u0120\u0120\u0120\u0120\u0120\u0120\u0120\u0120\u0120\u0120\u0120\u0120\u0120\u0120\u0120": 2339, "move": 2340, "258": 2341, "Crt": 2342, "MPi": 2343, "DVSS": 2344, "0720": 2345, "and": 2346, "\u0120Cu": 2347, "Myx": 2348, "\u0120drawing": 2349, "\u012014": 2350, "\u0120formed": 2351, "\u0120CTMFINAL": 2352, "0900": 2353, "68": 2354, "\u0120Enclosed": 2355, "VAR": 2356, "\u0120than": 2357, "\u0120exclude": 2358, "\u0120Ay": 2359, "\u0120Ax": 2360, "Center": 2361, "\u0120PMOS": 2362, "\u0120ILP": 2363, "ONE": 2364, "51": 2365, "SHRINK": 2366, "036": 2367, "\u0120include": 2368, "\u0120de": 2369, "\u012056": 2370, "\u0120requirement": 2371, "Figure": 2372, "\u0120includ": 2373, "prBoundary": 2374, "IGHB": 2375, "IGHBOR": 2376, "\u0120datatyp": 2377, "BV": 2378, "259": 2379, "253": 2380, "\u0120bent": 2381, "ZONE": 2382, "\u0120inters": 2383, "NG": 2384, "IFDEF": 2385, "\u0120FSx": 2386, "OUT": 2387, "400": 2388, "\u0120either": 2389, "\u0120RV": 2390, "\u010a\u0120\u0120\u0120\u0120\u0120\u0120\u0120\u0120\u0120\u0120\u0120\u0120\u0120\u0120\u0120\u0120\u0120\u0120\u0120\u0120": 2391, "TNc": 2392, "MENT": 2393, "\u0120CPODE": 2394, "0740": 2395, "\u0120Un": 2396, "\u0120Con": 2397, "RAW": 2398, "DTN": 2399, "LONG": 2400, "\u0120while": 2401, "\u0120core": 2402, "\u0120MyR": 2403, "wia": 2404, "wiave": 2405, "VxCB": 2406, "ross": 2407, "oly": 2408, "ize": 2409, "\u0120Red": 2410, "FO": 2411, "\u0120))": 2412, "pro": 2413, "\u0120branch": 2414, "\u0120und": 2415, "\u0120under": 2416, "\u0120red": 2417, "\u0120reduce": 2418, "\u0120excludeRR": 2419, "\u0120excludeRRule": 2420, "\u0120excludeRRuleRec": 2421, "\u0120excludeRRuleRecommended": 2422, "0280": 2423, "\u0120it": 2424, "..": 2425, "\u0120merged": 2426, "IODMY": 2427, "\u0120intersect": 2428, "\u0120intersecting": 2429, "\u0120Reinforced": 2430, "\u0120FSy": 2431, "\u0120high": 2432, "\u0120100000": 2433, "\u0120anal": 2434, "\u0120analog": 2435, "\u0120120000": 2436, "\u010a\u010a\u010a\u010a\u010a\u0120": 2437, "PWELi": 2438, "NACT": 2439, "pacing": 2440, "\u0120spacing": 2441, "DVyy": 2442, "\u0120edges": 2443, "\u0120another": 2444, "ifferent": 2445, "PSD": 2446, "\u0120time": 2447, "ource": 2448, "uch": 2449, "],": 2450, "\u0120Edge": 2451, "\u0120differ": 2452, "\u0120difference": 2453, "node": 2454, "\u0120MOS": 2455, "\u0120EST": 2456, "54900": 2457, "vice": 2458, "0700": 2459, "yp": 2460, "wyp": 2461, "part": 2462, ")+!!": 2463, "\u0120fix": 2464, "VIAyx": 2465, "-((": 2466, "\u0120If": 2467, "\u0120z": 2468, "\u0120\u0120\u0120\u0120\u0120\u0120\u0120\u0120\u0120\u0120\u0120\u0120\u0120\u0120\u0120\u0120\u0120\u0120\u0120\u0120": 2469, "\u0120GLOBAL": 2470, "EdgeH": 2471, "\u0120zone": 2472, "ense": 2473, "\u0120below": 2474, "ise": 2475, "ju": 2476, "Myz": 2477, "\u0120GLOBALX": 2478, "\u0120GLOBALXY": 2479, "\u0120RMDMYn": 2480, "\u0120Mns": 2481, "\u0120noise": 2482, "\u0120centerline": 2483, "1800": 2484, "\u0120BVG": 2485, "max": 2486, ")+(": 2487, "0230": 2488, "42": 2489, "aive": 2490, "\u0120poly": 2491, "\u0120hint": 2492, "\u0120hel": 2493, "\u0120help": 2494, "\u0120fixing": 2495, "\u0120Out": 2496, "\u0120Outp": 2497, "\u0120Output": 2498, "\u010a\u0120\u0120\u0120\u0120\u0120\u0120\u0120\u0120\u0120\u0120\u0120\u0120\u0120\u0120\u0120\u0120\u0120\u0120\u0120\u0120\u0120\u0120\u0120\u0120\u0120\u0120\u0120\u0120\u0120\u0120\u0120\u0120": 2499, "just": 2500, "201": 2501, "VIAyz": 2502, "LOSE": 2503, "ENCLOSE": 2504, "Small": 2505, "ME": 2506, "\u0120AA": 2507, "VIAtop": 2508, "37": 2509, "94": 2510, "\u0120\u010a\u010a": 2511, "\u0120device": 2512, "\u0120DEF": 2513, "0370": 2514, "tangular": 2515, "rectangular": 2516, "\u0120enh": 2517, "\u0120enhanced": 2518, "drain": 2519, "089": 2520, "\u0120XOR": 2521, "ome": 2522, "660": 2523, "\u0120IFO": 2524, "\u012075": 2525, "thode": 2526, "UMP": 2527, "115": 2528, "044": 2529, "0210": 2530, "CENTER": 2531, "BUMP": 2532, "200": 2533, "\u0120some": 2534, "prod": 2535, "product": 2536, "210": 2537, "\u0120fir": 2538, "\u0120first": 2539, "\u0120source": 2540, "MOMDMY": 2541, "\u0120LUPIEDMY": 2542, "))])": 2543, "96": 2544, "oun": 2545, "\u0120exclud": 2546, "RI": 2547, "DUVIA": 2548, "\u0120\u0120\u010a\u0120\u0120\u0120": 2549, "the": 2550, "Hi": 2551, "\u0120without": 2552, "SEGMENT": 2553, "\u0120required": 2554, "\u0120pad": 2555, "\u0120SmallJ": 2556, "\u0120SmallJog": 2557, "\u0120ShortEx": 2558, "\u0120ShortExp": 2559, "\u012030": 2560, "CDM": 2561, "\u0120Remove": 2562, "\u0120LV": 2563, "\u0120DIODMY": 2564, "\u0120Add": 2565, "yCBp": 2566, "yCAp": 2567, "xCBp": 2568, "xCAp": 2569, "\u0120VDDVSS": 2570, "\u0120210": 2571, "athode": 2572, "\u0120NMOS": 2573, "\u010a\u0120\u0120\u0120\u0120\u0120\u0120\u0120\u0120\u0120\u0120": 2574, ")*((": 2575, "())]": 2576, "corresponding": 2577, "2940": 2578, "MxR": 2579, "\u0120drawn": 2580, "\u0120reinforced": 2581, "IMP": 2582, "fi": 2583, "/^": 2584, "\u0120To": 2585, "GATEc": 2586, "DENSE": 2587, "855": 2588, "\u0120including": 2589, "\u0120Cathode": 2590, "\u0120Volt": 2591, "\u0120Voltage": 2592, "both": 2593, "74": 2594, "\u0120exis": 2595, "278": 2596, "0640": 2597, "\u0120Density": 2598, "\u0120Vx": 2599, "\u0120RW": 2600, "cond": 2601, "able": 2602, "LOR": 2603, "COLOR": 2604, "BPO": 2605, "\u0120800": 2606, "\u0120ANS": 2607, "\u0120ANM": 2608, "\u0120ANHS": 2609, "ITCH": 2610, "1600": 2611, "PM": 2612, "\u010a\u0120\u0120\u0120\u0120\u0120\u0120\u0120\u0120\u0120\u0120\u0120\u0120\u0120\u0120\u0120\u0120\u0120\u0120": 2613, "\u0120enclos": 2614, "\u0120enclose": 2615, "VOLTAGE": 2616, "\u0120maximum": 2617, "mi": 2618, "\u0120GVIA": 2619, "\u0120ANODE": 2620, "round": 2621, "\u0120GM": 2622, "MFUSE": 2623, "\u0120\u0120\u010a\u0120\u0120\u0120\u0120\u0120\u0120\u0120\u0120\u0120\u0120\u0120\u0120\u0120\u0120\u0120\u0120\u0120\u0120\u0120\u0120\u0120\u0120\u0120\u0120\u0120\u0120\u0120\u0120\u0120\u0120\u0120": 2624, "\u0120HINT": 2625, "MJ": 2626, "-/": 2627, "\u0120\u010a\u0120\u0120\u0120\u0120\u0120\u0120\u0120\u0120\u0120\u0120\u0120\u0120\u0120": 2628, "\u0120Dense": 2629, "GA": 2630, "021": 2631, "\u0120{(": 2632, "\u0120excluded": 2633, "\u0120SRDOD": 2634, "ONLY": 2635, "\u0120LC": 2636, "\u0120DMz": 2637, "ex": 2638, "ORT": 2639, "LINK": 2640, "2400": 2641, "\u0120It": 2642, "186": 2643, "189": 2644, "2000": 2645, "\u0120SSD": 2646, "pand": 2647, "\u0120comm": 2648, "\u0120Vmax": 2649, "\u0120Side": 2650, "\u0120Sidewall": 2651, "\u012080": 2652, "\u0120)/": 2653, "074": 2654, "\u0120av": 2655, "\u0120avo": 2656, "\u0120avoid": 2657, "qual": 2658, "emi": 2659, "41": 2660, "\u0120but": 2661, "window": 2662, "2510": 2663, "IC": 2664, "0620": 2665, "umi": 2666, "umilative": 2667, "cumilative": 2668, "279": 2669, "\u0120forbidden": 2670, "\u0120VOLTAGES": 2671, "\u0120SRDPO": 2672, "\u0120DEFA": 2673, "\u0120DEFAULT": 2674, "\u0120coun": 2675, "RIVER": 2676, "DRIVER": 2677, "\u0120touch": 2678, "\u0120HIADMY": 2679, "110": 2680, "0490": 2681, "\u0120NSTPi": 2682, "efined": 2683, "Size": 2684, "\u0120SS": 2685, "\u0120SSC": 2686, "balanced": 2687, "\u0120DMx": 2688, "\u010a\u0120\u0120\u0120\u0120\u0120\u0120\u0120\u0120\u0120\u0120\u0120\u0120\u0120\u0120\u0120": 2689, "panding": 2690, "LOG": 2691, "LOGIC": 2692, "VDD": 2693, "SRDPO": 2694, "Waive": 2695, "\u0120Iso": 2696, "\u0120CBMW": 2697, "\u0120AR": 2698, "VTULN": 2699, "\u0120exist": 2700, "IBJT": 2701, "DER": 2702, "dp": 2703, "\u0120ODn": 2704, "DVyx": 2705, "\u012000": 2706, "1500": 2707, "\u0120numb": 2708, "\u0120numbers": 2709, "\u0120DCPODE": 2710, "\u0120point": 2711, "\u0120equal": 2712, "\u0120Except": 2713, "\u0120expanding": 2714, "rtual": 2715, "\u0120datatype": 2716, "\u0120Each": 2717, "272": 2718, "018": 2719, "SL": 2720, "\u0120CTMW": 2721, "0940": 2722, ")}}": 2723, "\u0120out": 2724, "Lg": 2725, "\u0120across": 2726, "{{": 2727, "LC": 2728, "HEAL": 2729, "HEALTH": 2730, "156": 2731, "\u0120file": 2732, "\u0120command": 2733, "\u0120STI": 2734, "Is": 2735, "HOR": 2736, "\u0120DENSE": 2737, "MEAR": 2738, "273": 2739, "\u0120full": 2740, "1300": 2741, "\u012015": 2742, "rojec": 2743, "Projec": 2744, "NA": 2745, "PITCH": 2746, "\u0120pure": 2747, "\u0120pureM": 2748, "MANDRELS": 2749, "1340": 2750, "VA": 2751, "\u0120\u0120\u0120\u0120\u0120\u0120\u0120\u0120\u0120\u0120\u0120": 2752, "\u0120regions": 2753, "\u0120i": 2754, "ritical": 2755, "\u0120POW": 2756, "\u01206": 2757, "FPO": 2758, "88": 2759, "ven": 2760, "fin": 2761, "\u0120defined": 2762, "\u0120Cumulative": 2763, "\u0120outside": 2764, "TIE": 2765, "LAT": 2766, "IDE": 2767, "VTSN": 2768, "\u0120\u0120\u0120\u0120\u0120\u0120\u0120\u0120\u0120\u0120\u0120\u0120": 2769, ".)": 2770, "\u0120TPC": 2771, "iso": 2772, "CAD": 2773, "\u012012": 2774, "\u0120When": 2775, "\u0120One": 2776, "035": 2777, ")*(!!": 2778, "\u0120Concave": 2779, "\u0120VTUL": 2780, "\u0120RP": 2781, "\u0120RPDMY": 2782, "\u0120ODS": 2783, "oint": 2784, "lter": 2785, "IR": 2786, "Critical": 2787, "\u0120min": 2788, "\u0120mat": 2789, "\u0120matching": 2790, "\u0120cell": 2791, "\u0120Dy": 2792, "\u0120Dx": 2793, ")))*!~(": 2794, "filter": 2795, "WA": 2796, "LATTEN": 2797, "LAST": 2798, "\u0120me": 2799, "\u0120MPC": 2800, "\u0120EWYP": 2801, "One": 2802, "IL": 2803, "different": 2804, "SHORT": 2805, "0570": 2806, "\u0120stra": 2807, "Island": 2808, "190": 2809, "\u0120over": 2810, "EdgeV": 2811, "\u0120\u0120\u0120\u0120\u0120\u0120\u0120\u0120\u0120\u0120\u0120\u0120\u0120\u0120\u0120": 2812, "\u0120dmy": 2813, "WINDOW": 2814, "\u0120\u0120\u0120\u010a\u0120": 2815, "\u0120\u0120\u0120\u0120\u0120\u0120\u0120\u0120\u0120\u0120\u0120\u0120\u0120\u0120\u010a\u0120": 2816, "\u0120tra": 2817, "\u0120track": 2818, "\u0120Point": 2819, "\u012018": 2820, "0080": 2821, "\u0120exists": 2822, "ant": 2823, "0190": 2824, "POB": 2825, "MxCA": 2826, "0030": 2827, "\u010a\u0120\u0120\u0120\u0120\u0120\u0120\u0120\u0120\u0120\u0120\u0120\u0120": 2828, "DRAW": 2829, "071": 2830, "0410": 2831, "\u0120\u0120\u010a\u010a\u0120": 2832, "PSTPi": 2833, "MxaCA": 2834, "PSDc": 2835, "\u01207": 2836, "between": 2837, "CENTERLINE": 2838, "\u0120Erry": 2839, "\u0120Errx": 2840, "\u0120DMr": 2841, "dist": 2842, "\u0120you": 2843, "\u0120par": 2844, "Val": 2845, "\u0120files": 2846, "\u0120director": 2847, "\u0120directory": 2848, "\u0120MxCB": 2849, "\u0120ANTEN": 2850, "\u0120ANTENNA": 2851, "ULE": 2852, "RULE": 2853, "ue": 2854, "pin": 2855, "ERROR": 2856, "\u0120boundary": 2857, "space": 2858, "Value": 2859, "sel": 2860, "\u0120along": 2861, "via": 2862, "UO": 2863, "0180": 2864, "\u0120BPC": 2865, "IFO": 2866, "\u0120NE": 2867, "\u0120NEIGHBOR": 2868, "\u0120CATHODE": 2869, "GB": 2870, "Fuse": 2871, "TOP": 2872, "EST": 2873, "))*!": 2874, "))*!~(": 2875, "\u0120'": 2876, "BVG": 2877, "\u0120VERTEX": 2878, "\u0120920000": 2879, "\u0120220000": 2880, "\u0120strait": 2881, "\u0120FILL": 2882, "FULL": 2883, "\u0120Unbalanced": 2884, "\u0120Horizontal": 2885, "Pin": 2886, "0950": 2887, "009": 2888, "\u0120paral": 2889, "\u0120paralle": 2890, "\u0120parallel": 2891, "0310": 2892, "\u0120RHTNc": 2893, "VTLN": 2894, "DMya": 2895, "DMxa": 2896, "DMx": 2897, "\u0120Use": 2898, "\u0120MetalFuse": 2899, "UBM": 2900, "063": 2901, "\u0120island": 2902, "\u0120Rule": 2903, "\u0120ANGLED": 2904, "Table": 2905, "\u0120oper": 2906, "\u0120RuleTable": 2907, "\u0120Redund": 2908, "\u0120Redundant": 2909, "ILP": 2910, "\u0120lengths": 2911, "\u0120GRA": 2912, "\u0120GRADI": 2913, "\u0120GRADIENT": 2914, "0895": 2915, "CBMFINAL": 2916, "\u0120SRE": 2917, "\u0120SRESD": 2918, "\u0120Line": 2919, "GC": 2920, "0560": 2921, "\u0120chipb": 2922, "\u0120chi": 2923, "\u0120chipa": 2924, "\u0120UseprBoundary": 2925, "700": 2926, "\u0120polyg": 2927, "\u0120polygon": 2928, "\u0120EWXP": 2929, "VEL": 2930, "1900": 2931, "072": 2932, "0650": 2933, "plu": 2934, "plug": 2935, "\u0120\u0120\u0120\u0120\u0120\u0120\u0120\u0120\u0120\u0120\u0120\u0120\u0120\u0120\u0120\u0120\u0120\u0120": 2936, "\u0120recommended": 2937, "\u0120By": 2938, "\u0120An": 2939, "\u0120Any": 2940, "lt": 2941, "\u0120Bx": 2942, "DACT": 2943, "0470": 2944, "033": 2945, "\u0120PSTPi": 2946, "ir": 2947, "VSS": 2948, "SSC": 2949, "Projection": 2950, "DCPO": 2951, "\u0120need": 2952, "\u0120counts": 2953, "\u0120Med": 2954, "LECT": 2955, "\u0120PWEL": 2956, "CrtPO": 2957, "122": 2958, "\u0120sp": 2959, "\u0120spec": 2960, "4000": 2961, "eD": 2962, "UIDE": 2963, "GUIDE": 2964, "\u0120CBD": 2965, "center": 2966, "\u01206000": 2967, "ewyp": 2968, "\u0120SRPOLY": 2969, "\u0120\u010a": 2970, "nmdp": 2971, "nmdpc": 2972, "\u0120PTAP": 2973, "\u0120NTAP": 2974, "MyR": 2975, "EXCEPTx": 2976, "\u0120DMyy": 2977, "\u0120CORE": 2978, "Ay": 2979, "Ax": 2980, "\u0120VIAyz": 2981, "\u0120MDi": 2982, "\u0120DMnEXCL": 2983, "iSRAM": 2984, "est": 2985, "BLOCKi": 2986, "ult": 2987, "nel": 2988, "annel": 2989, "\u0120placed": 2990, "\u0120Last": 2991, "\u0120FLATTEN": 2992, "PTAP": 2993, "\u0120REF": 2994, "126": 2995, "\u010a\u0120\u0120\u0120\u0120\u0120\u0120\u0120\u0120\u0120\u0120\u0120\u0120\u0120\u0120\u0120\u0120\u0120\u0120\u0120\u0120\u0120\u0120": 2996, "113": 2997, "\u0120needs": 2998, "us": 2999, "gate": 3000, "DNWi": 3001, "\u0120ya": 3002, "\u0120xa": 3003, "include": 3004, "\u0120operating": 3005, "\u0120Net": 3006, "ial": 3007, "\u0120bond": 3008, "0325": 3009, "...": 3010, "\u0120die": 3011, "\u0120Effect": 3012, "NEIGHBOR": 3013, "\u0120special": 3014, "\u0120SELECT": 3015, "\u0120POST": 3016, "\u0120MIN": 3017, "\u0120GROUP": 3018, "\u0120220": 3019, "The": 3020, "DMV": 3021, "\u0120PC": 3022, "\u0120PCL": 3023, "RHTNc": 3024, "PMOS": 3025, "0660": 3026, "\u0120chk": 3027, "^(": 3028, "^(-": 3029, "*((": 3030, ")))+": 3031, ")^(-": 3032, "\u0120use": 3033, "xp": 3034, "wxp": 3035, "PL": 3036, "OUTSIDE": 3037, "\u0120sty": 3038, "\u0120style": 3039, "\u0120CMDi": 3040, "MATCH": 3041, "INE": 3042, "67": 3043, "\u0120PODER": 3044, "CAPDMY": 3045, "91": 3046, "\u0120RR": 3047, "VIR": 3048, "VIRT": 3049, "BOT": 3050, "NSTPi": 3051, "\u0120Unf": 3052, "\u0120Unfri": 3053, "\u0120Unfriend": 3054, "\u0120Unfriendly": 3055, "\u0120Reduce": 3056, "\u0120Manually": 3057, "layers": 3058, "1080": 3059, "108": 3060, "046": 3061, "\u0120Both": 3062, "urround": 3063, "\u0120connects": 3064, "MATCHING": 3065, "CPL": 3066, "Anode": 3067, "0820": 3068, "\u010a\u0120\u0120\u0120\u0120\u0120\u0120\u0120\u0120\u0120\u0120\u0120\u0120\u0120\u0120\u0120\u0120\u0120\u0120\u0120\u0120\u0120\u0120\u0120": 3069, "GL": 3070, "\u0120NTN": 3071, "RSTI": 3072, "EQ": 3073, "\u0120HD": 3074, "STI": 3075, "\u0120surround": 3076, "\u0120relative": 3077, "\u0120Gate": 3078, "\u010a\u0120\u0120\u0120\u0120\u0120\u0120\u0120\u0120\u0120\u0120\u0120\u0120\u0120\u0120\u0120\u0120\u0120\u0120\u0120\u0120\u0120\u0120\u0120\u0120\u0120\u0120": 3079, "rawing": 3080, "drawing": 3081, "PIN": 3082, "ABLE": 3083, "130": 3084, "017": 3085, "tom": 3086, "POM": 3087, "CBdy": 3088, "CBdx": 3089, "CAdy": 3090, "CAdx": 3091, "ODDA": 3092, "\u0120VTL": 3093, "\u0120PODN": 3094, "\u0120DCOD": 3095, "CMDn": 3096, "425": 3097, "312": 3098, "\u0120identically": 3099, "\u0120NT": 3100, "rp": 3101, "Grp": 3102, "DMyz": 3103, "1240": 3104, "082": 3105, "\u0120ewyp": 3106, "\u0120Overlap": 3107, "\u0120fin": 3108, "\u0120SINGLE": 3109, "\u0120Rc": 3110, "rel": 3111, "lv": 3112, "andrel": 3113, "VIAnA": 3114, "MnA": 3115, "Mandrel": 3116, "0040": 3117, "\u0120vias": 3118, "ere": 3119, "Semi": 3120, "ISO": 3121, "3600": 3122, "300000": 3123, "3000": 3124, "0090": 3125, "\u0120recog": 3126, "\u0120recogn": 3127, "\u0120SVxCB": 3128, "VTSP": 3129, "450": 3130, "2280": 3131, "\u0120cut": 3132, "lic": 3133, "SRDOD": 3134, "\u0120sensi": 3135, "\u0120sensitive": 3136, "\u0120POR": 3137, "\u0120MxCA": 3138, "\u0120DRAW": 3139, "\u0120DACT": 3140, "METAL": 3141, "All": 3142, "\u012017": 3143, "irc": 3144, "ircu": 3145, "IPD": 3146, "350": 3147, "\u0120EXCEPTION": 3148, "292": 3149, "1100": 3150, "\u0120less": 3151, "ircuit": 3152, "0240": 3153, "\u0120MAT": 3154, "\u0120MATCH": 3155, "\u0120MATCHING": 3156, "\u0120Adjacent": 3157, "xW": 3158, "xWdx": 3159, "xWdxL": 3160, "xWdxLd": 3161, "CBD": 3162, "10000": 3163, "xdyi": 3164, "xdxi": 3165, "Cu": 3166, "\u0120\u0120\u0120\u0120\u0120\u0120\u0120\u010a\u0120\u0120": 3167, "\u0120\u0120\u0120\u0120\u010a\u0120\u0120\u0120\u0120\u0120\u0120\u0120\u0120\u0120\u0120\u0120\u0120\u0120\u0120\u0120\u0120\u0120\u0120\u0120\u0120\u0120\u0120\u0120\u0120\u0120\u0120\u0120\u0120\u0120\u0120\u0120\u0120": 3168, "\u0120Total": 3169, "\u0120On": 3170, "318": 3171, "299": 3172, "\u0120gates": 3173, "EXPc": 3174, "313": 3175, "\u0120neare": 3176, "\u0120nearest": 3177, "IOVSS": 3178, "ECT": 3179, "0265": 3180, "\u0120\u0120\u0120\u0120\u0120\u0120\u0120\u0120\u0120\u0120\u0120\u0120\u0120\u0120\u0120\u0120\u0120\u0120\u0120\u0120\u0120\u0120": 3181, "\u0120cus": 3182, "\u0120custom": 3183, "tem": 3184, "CHB": 3185, "319": 3186, "298": 3187, "293": 3188, "\u0120VxCB": 3189, "\u0120MxaCB": 3190, "ick": 3191, "\u012065": 3192, "By": 3193, "Bx": 3194, "\u0120bars": 3195, "52": 3196, "\u0120Up": 3197, "\u0120Upper": 3198, "\u0120Only": 3199, "stepping": 3200, "0590": 3201, "\u0120Region": 3202, "\u0120Mup": 3203, "\u0120Mdn": 3204, "\u0120DMya": 3205, "Virtual": 3206, "Groups": 3207, "GTE": 3208, "EGTE": 3209, "\u0120DECAPDMY": 3210, "\u012019": 3211, "0680": 3212, "0340": 3213, "\u0120FPSTPi": 3214, "\u0120High": 3215, "\u0120Highly": 3216, "NOTCH": 3217, "\u0120\u0120\u010a\u010a\u010a\u010a\u010a\u0120": 3218, "\u0120\u010a\u0120\u0120\u0120\u0120\u0120\u0120\u0120\u0120\u0120\u0120\u0120\u0120\u0120\u0120\u0120\u0120\u0120\u0120\u0120\u0120\u0120\u0120\u0120": 3219, "LOP": 3220, "39": 3221, "\u0120CBMFINAL": 3222, "255": 3223, "099": 3224, "\u0120SLV": 3225, "DVya": 3226, "DVxa": 3227, "DVx": 3228, "\u0120WAIVEABLE": 3229, "\u0120NOU": 3230, "\u0120NOUSE": 3231, "\u0120GMerge": 3232, "TION": 3233, "OPTION": 3234, "\u0120SEL": 3235, "\u0120DNWi": 3236, "671": 3237, "556": 3238, "\u012085": 3239, "izing": 3240, "0805": 3241, "0870": 3242, "\u0120sizing": 3243, "\u0120polygons": 3244, "}}}}": 3245, "ized": 3246, "pad": 3247, "ertical": 3248, "corner": 3249, "MPC": 3250, "CrtMD": 3251, "\u0120({": 3252, "\u0120datatypes": 3253, "\u0120POi": 3254, "}}},": 3255, "tection": 3256, "US": 3257, "USER": 3258, "ROUND": 3259, "NTAP": 3260, "\u0120single": 3261, "\u0120Extension": 3262, "\u010a\u0120\u010a\u0120": 3263, "}},": 3264, "50000": 3265, "TPC": 3266, "DCMD": 3267, "0320": 3268, "\u0120recognized": 3269, "\u0120ODi": 3270, "sive": 3271, "BCMD": 3272, "\u0120VGn": 3273, "\u0120VDn": 3274, "Corner": 3275, "):": 3276, "~((": 3277, "MxaCB": 3278, "Last": 3279, "BPC": 3280, "\u0120ERROR": 3281, "0580": 3282, "049": 3283, "\u0120POM": 3284, "\u0120Di": 3285, "\u0120\u0120\u010a\u0120\u0120\u0120\u0120\u0120\u0120\u0120\u0120\u0120\u0120\u0120\u0120\u0120": 3286, "\u0120dx": 3287, "\u0120ODcs": 3288, "PPUi": 3289, "\u0120Figure": 3290, "\u0120\u0120\u0120\u0120\u010a\u0120\u0120\u0120": 3291, "\u0120BE": 3292, "ost": 3293, "Vn": 3294, "MDi": 3295, "048": 3296, "0350": 3297, "\u0120guard": 3298, "\u0120PWELn": 3299, "0245": 3300, "\u0120PSTP": 3301, "ask": 3302, "DIODMY": 3303, "\u0120these": 3304, "\u0120SRDMD": 3305, "\u0120LAST": 3306, "Regionx": 3307, "1120": 3308, "\u0120\u0120\u0120\u0120\u010a\u0120\u0120\u0120\u0120\u0120\u0120": 3309, "\u0120Draw": 3310, "NWDMY": 3311, "025": 3312, "\u0120FILLER": 3313, "OVL": 3314, "0205": 3315, "\u0120run": 3316, "\u0120most": 3317, "\u0120beside": 3318, "\u0120Anode": 3319, "Chip": 3320, "\u0120{{{{": 3321, "mation": 3322, "MxCB": 3323, "DMn": 3324, "ANARRAY": 3325, "765": 3326, "1350": 3327, "\u0120SL": 3328, "\u0120RWi": 3329, "Line": 3330, "\u0120cumulatively": 3331, "\u0120LUPWDMY": 3332, "\u0120Drawn": 3333, "Different": 3334, "1812": 3335, "0440": 3336, "\u0120definition": 3337, "\u0120PWSTRAP": 3338, "\u0120CrtCMD": 3339, "LeD": 3340, "\u0120even": 3341, "\u0120Single": 3342, "\u0120NWRSTI": 3343, "\u0120Diode": 3344, "CMDS": 3345, "065": 3346, "0460": 3347, "\u0120usage": 3348, "\u0120them": 3349, "\u0120themsel": 3350, "\u0120themselve": 3351, "\u0120themselves": 3352, "\u0120customers": 3353, "\u0120NWSTRAP": 3354, "GN": 3355, "DMP": 3356, "47": 3357, "192": 3358, "\u0120Ac": 3359, "\u012013": 3360, "cp": 3361, "SM": 3362, "NSD": 3363, "061": 3364, "\u0120text": 3365, "44": 3366, "\u0120GCOD": 3367, "Regiony": 3368, "280": 3369, ");": 3370, "\u0120Active": 3371, "\u0120la": 3372, "VIAxy": 3373, "VIAxc": 3374, "enclosure": 3375, "FC": 3376, "0450": 3377, "\u0120fil": 3378, "\u0120film": 3379, "\u0120ELK": 3380, "\u0120DyCB": 3381, "\u0120DyCA": 3382, "\u0120DxCB": 3383, "\u0120DxCA": 3384, "Fi": 3385, "\u0120structures": 3386, "\u0120pick": 3387, "\u0120dup": 3388, "\u0120duplic": 3389, "\u0120duplicate": 3390, "\u0120Must": 3391, "\u0120Isolation": 3392, "\u0120JOG": 3393, "))-": 3394, "\u0120abutment": 3395, "\u0120PSD": 3396, "\u0120NPi": 3397, "\u0120LINE": 3398, "1920": 3399, "1790": 3400, "\u0120\u0120\u0120\u0120\u0120\u0120\u0120\u0120\u0120\u0120\u0120\u0120\u0120\u0120\u0120\u0120\u0120\u0120\u0120": 3401, "\u0120mean": 3402, "PPi": 3403, "NPi": 3404, "9000": 3405, "039": 3406, "\u012029": 3407, "\u010a\u010a\u010a\u010a\u010a\u010a\u010a\u0120": 3408, "ated": 3409, "DVyz": 3410, "1512": 3411, "\u0120\u0120\u0120\u010a\u0120\u0120\u010a\u0120": 3412, "\u0120circuit": 3413, "\u0120+!": 3414, "ium": 3415, "ep": 3416, "\u0120exclu": 3417, "hannel": 3418, "REGIONx": 3419, "OLBLK": 3420, "171": 3421, "330": 3422, "\u0120\u0120\u0120\u0120\u0120\u0120\u0120\u0120\u0120\u0120\u0120\u0120\u0120": 3423, "\u0120exclusive": 3424, "\u0120Semi": 3425, "\u010a\u010a\u010a\u010a\u010a\u010a\u0120": 3426, "Extension": 3427, "EMOS": 3428, "145": 3429, "POi": 3430, "CHKc": 3431, "179": 3432, "027": 3433, "\u0120\u010a\u0120\u0120\u0120\u0120\u0120\u0120\u0120\u0120\u0120\u0120\u0120": 3434, "\u0120VCn": 3435, "\u0120DVIAx": 3436, "Wi": 3437, "Con": 3438, "7200": 3439, "231": 3440, "\u0120overlaps": 3441, "\u0120infor": 3442, "\u0120information": 3443, "\u0120UBMi": 3444, "\u0120DMxa": 3445, "\u0120CRAM": 3446, "FILLER": 3447, "0530": 3448, ")}}}": 3449, "ous": 3450, "490": 3451, "1890": 3452, "\u0120power": 3453, "\u0120Same": 3454, "\u0120K": 3455, "RATING": 3456, "LEVEL": 3457, "GRATING": 3458, "ENMOS": 3459, "\"))": 3460, "\u0120please": 3461, "\u0120connecting": 3462, "1260": 3463, "\u0120MxaCA": 3464, "tch": 3465, "VTULNi": 3466, "VTULPi": 3467, "VTSNi": 3468, "VTSPi": 3469, "VTLNi": 3470, "VTLPi": 3471, "SMIN": 3472, "SMAX": 3473, "ODj": 3474, "ODi": 3475, "NSDc": 3476, "630": 3477, "00034": 3478, "\u0120\u0120\u0120\u0120\u010a\u010a\u0120": 3479, "\u0120swi": 3480, "\u0120switch": 3481, "\u0120SQ": 3482, "\u0120SQU": 3483, "\u0120SQUA": 3484, "\u0120SRDMDi": 3485, "Horizontal": 3486, "0840": 3487, "012": 3488, "CMDis": 3489, "0175": 3490, "\u0120size": 3491, "\u0120CBi": 3492, "VDDVSS": 3493, "\u0120SQUARE": 3494, "\u0120\u010a\u0120\u0120\u0120\u0120\u0120\u0120\u0120\u0120\u0120\u0120\u0120\u0120\u0120\u0120\u0120\u0120\u0120\u0120\u0120\u0120\u0120\u0120\u0120\u0120": 3495, "2190": 3496, "\u0120remove": 3497, "\u0120SVxCA": 3498, "ass": 3499, "WPO": 3500, "SSD": 3501, "PHIA": 3502, "NOI": 3503, "NOISE": 3504, "NHIA": 3505, "\u0120{{{{{": 3506, "\u0120NWn": 3507, "neighboring": 3508, "distance": 3509, "POR": 3510, "0360": 3511, "56": 3512, "\u0120\u0120\u0120\u0120\u0120\u0120\u0120\u0120\u0120\u0120\u0120\u0120\u0120\u0120\u0120\u0120\u0120\u0120\u0120\u0120\u0120": 3513, "\u0120enclosed": 3514, "\u0120REG": 3515, "\u0120TIN": 3516, "\u0120NSTP": 3517, "pend": 3518, "\u0120ta": 3519, "\u0120means": 3520, "\u0120VxCA": 3521, "\u010a\u010a\u010a": 3522, "TEDMY": 3523, "JTEDMY": 3524, "\u0120\u0120\u010a\u0120\u0120\u0120\u0120\u0120\u0120\u0120\u0120\u0120\u0120\u0120\u0120\u0120\u0120\u0120\u0120\u0120\u0120\u0120": 3525, "\u0120Square": 3526, "\u0120MED": 3527, "\u0120125": 3528, "virtual": 3529, "long": 3530, "SLVIA": 3531, "GRPdy": 3532, "GRPdx": 3533, "2990": 3534, "SMC": 3535, "\u0120surrounding": 3536, "\u0120RHTN": 3537, "037": 3538, "WO": 3539, "\u0120errors": 3540, "\u0120degreex": 3541, "\u0120VDD": 3542, "\u0120LAY": 3543, "ewxp": 3544, "IRE": 3545, "59": 3546, "1815": 3547, "0540": 3548, "\u0120STA": 3549, "\u0120STAMP": 3550, "TMOM": 3551, "TMOMDMY": 3552, "OVE": 3553, "DWDMY": 3554, "ABOVE": 3555, "\u0120shown": 3556, "\u0120per": 3557, "\u0120includes": 3558, "\u0120addition": 3559, "\u0120additional": 3560, "type": 3561, "ZF": 3562, "ODS": 3563, "46": 3564, "IBJTDMY": 3565, "093": 3566, "\u0120TOL": 3567, "\u0120PPi": 3568, "\u0120CPOS": 3569, "touch": 3570, "onf": 3571, "layout": 3572, "conf": 3573, "RMDMYAP": 3574, "43": 3575, "2570": 3576, ",)": 3577, "\u0120switched": 3578, "\u0120POB": 3579, "\u0120MPn": 3580, "DMPi": 3581, "3410": 3582, ")*!~((": 3583, "\u0120Isol": 3584, "ight": 3585, "VB": 3586, "HIADMY": 3587, "1530": 3588, "\u0120pin": 3589, "\u0120lowest": 3590, "\u0120highest": 3591, "\u0120gre": 3592, "\u0120great": 3593, "\u0120greater": 3594, "\u0120VTR": 3595, "\u0120LastTrGATE": 3596, "\u0120BEVEL": 3597, "\u0120\"-": 3598, "\u0120TEXT": 3599, "\u010a\u0120\u0120\u0120\u0120\u0120\u0120\u0120\u0120\u0120\u0120\u0120\u0120\u0120\u0120\u0120\u0120\u0120\u0120\u0120\u0120\u0120\u0120\u0120\u0120\u0120\u0120\u0120\u0120": 3600, "}}]": 3601, "by": 3602, "]},": 3603, "POST": 3604, ".:": 3605, "\u0120VGis": 3606, "\u0120VDis": 3607, "\u0120POMM": 3608, "\u0120PS": 3609, "\u0120NWR": 3610, "\u0120MA": 3611, "\u0120FU": 3612, "\u0120FULL": 3613, "dyCB": 3614, "dyCA": 3615, "dxCB": 3616, "dxCA": 3617, "Mxs": 3618, "\u0120recommend": 3619, "\u0120injectors": 3620, "square": 3621, "except": 3622, "PSTP": 3623, "EOLBLK": 3624, "DCMDi": 3625, "\u0120wor": 3626, "\u0120work": 3627, "\u0120tak": 3628, "\u0120dy": 3629, "ctor": 3630, "\u0120\u010a\u0120\u0120\u0120\u0120\u0120\u0120\u0120\u0120\u0120\u0120\u0120\u0120\u0120\u0120\u0120\u0120\u0120\u0120\u0120\u0120": 3631, "lict": 3632, "conflict": 3633, "2600": 3634, "\u0120HIANMOS": 3635, "\u0120HVD": 3636, "\u0120Either": 3637, "\u0120350000": 3638, "\u0120J": 3639, "3590": 3640, "\u0120sta": 3641, "\u0120followed": 3642, "ya": 3643, "/...": 3644, "/.../": 3645, "\u0120MJ": 3646, "\u0120Des": 3647, "\u0120Desn": 3648, "\u0120Desnsi": 3649, "\u0120Desnsity": 3650, "\u0120CENTERLINE": 3651, "IAS": 3652, "GCOD": 3653, "DCOD": 3654, "CRAM": 3655, "BIAS": 3656, "\u0120RTMOMDMY": 3657, "\u0120Q": 3658, "NDEF": 3659, "IFNDEF": 3660, "Even": 3661, "032": 3662, "0160": 3663, "\u0120coin": 3664, "\u0120coinc": 3665, "\u0120alway": 3666, "\u0120always": 3667, "\u0120SUM": 3668, "It": 3669, "Concave": 3670, "\u0120def": 3671, "\u0120defa": 3672, "\u0120default": 3673, "\u0120NOTCH": 3674, "\u010a\u0120\u0120\u0120\u010a\u0120\u0120": 3675, "led": 3676, "PODER": 3677, "1000000": 3678, "\":": 3679, "\u0120[{": 3680, "\u012060": 3681, "Dummy": 3682, "0225": 3683, "\u0120Layer": 3684, "\u012010700": 3685, "\u0120300000": 3686, "SSI": 3687, "PCL": 3688, "10700": 3689, "0220": 3690, "\u0120wall": 3691, "\u0120fing": 3692, "\u0120Co": 3693, "\u010a\u0120\u0120\u0120\u0120\u0120\u0120\u0120\u0120\u0120\u0120\u0120\u0120\u0120\u0120\u0120\u0120\u0120\u0120\u0120\u0120\u0120\u0120\u0120\u0120\u0120\u0120\u0120\u0120\u0120\u0120": 3694, "cation": 3695, "SLVIAx": 3696, "\u0120item": 3697, "\u0120ewxp": 3698, "\u0120application": 3699, "ias": 3700, "any": 3701, "ab": 3702, "CSRDMY": 3703, "Bias": 3704, "\u0120none": 3705, "\u0120MASK": 3706, "\u012026": 3707, "\u0120260000": 3708, "~~(": 3709, "ane": 3710, "VIAxs": 3711, "VIAxe": 3712, "VIAxd": 3713, "Up": 3714, "1160": 3715, ")*~~(": 3716, ")))]": 3717, "\u0120sim": 3718, "\u0120simult": 3719, "\u0120simultane": 3720, "VTLP": 3721, "RPDMY": 3722, "2500": 3723, "\u0120Checking": 3724, "\u0120!~(": 3725, "\u0120!(": 3726, "ray": 3727, "array": 3728, "\u0120\u0120\u010a": 3729, "\u0120wh": 3730, "\u0120((((": 3731, "1520": 3732, "\u0120upper": 3733, "\u0120meth": 3734, "\u0120method": 3735, "\u0120methodol": 3736, "\u0120methodolog": 3737, "\u0120methodology": 3738, "\u0120he": 3739, "\u0120height": 3740, "\u0120Pro": 3741, "\u0120Protection": 3742, "efine": 3743, "CPOS": 3744, "945": 3745, "350000": 3746, "220": 3747, "1710": 3748, "0860": 3749, "\u0120stack": 3750, "\u0120stacked": 3751, "\u0120MOMCAP": 3752, "\u0120Merged": 3753, "\u0120FNSTPi": 3754, "\u0120EDGEy": 3755, "\u0120EDGEx": 3756, "085": 3757, "0605": 3758, "0420": 3759, "\u0120projection": 3760, "\u0120drain": 3761, "waive": 3762, "minimum": 3763, "\u0120where": 3764, "\u0120stre": 3765, "\u0120stress": 3766, "\u0120reli": 3767, "\u0120relief": 3768, "\u0120enab": 3769, "\u0120enabled": 3770, "\u0120EXCEPTx": 3771, "\u0120EWy": 3772, "\u0120EWyP": 3773, "\u0120EWx": 3774, "\u0120EWxP": 3775, "set": 3776, "mat": 3777, "match": 3778, "TSMC": 3779, "ORI": 3780, "Fine": 3781, "128": 3782, "0955": 3783, "\u0120STRAPs": 3784, "\u0120BJT": 3785, "PODN": 3786, "ALLOD": 3787, "135": 3788, ")).": 3789, "\u0120VCis": 3790, "\u0120SDE": 3791, "\u0120Recommend": 3792, "\u0120OUT": 3793, "\u010a\u0120\u0120\u0120\u0120\u010a\u0120": 3794, "ign": 3795, "co": 3796, "VTEN": 3797, "UST": 3798, "Mrk": 3799, "IV": 3800, "GD": 3801, "Erry": 3802, "Errx": 3803, "EV": 3804, "\u0120existen": 3805, "\u0120existence": 3806, "\u0120come": 3807, "\u0120Medium": 3808, "SB": 3809, ".}": 3810, "\u0120mask": 3811, "\u012031": 3812, "exclude": 3813, "channel": 3814, "cross": 3815, "0920": 3816, "\")": 3817, "\u0120count": 3818, "\u0120ODs": 3819, "}}}": 3820, "eter": 3821, "PERI": 3822, "DMUO": 3823, "1810": 3824, "-,": 3825, "\u0120Item": 3826, "\u0120GMergeW": 3827, "\u0120GMergeB": 3828, "\u0120DVIAxR": 3829, "\u0120Cons": 3830, "\u0120Consecutive": 3831, "floating": 3832, "Vertical": 3833, "EXPS": 3834, "5090": 3835, "49": 3836, "0960": 3837, "\u0120simultaneous": 3838, "\u0120simultaneously": 3839, "\u0120set": 3840, "\u0120dm": 3841, "ume": 3842, "run": 3843, "layer": 3844, "dm": 3845, "assume": 3846, "\u0120sequ": 3847, "\u0120sequence": 3848, "\u0120ODDN": 3849, "\u0120LUPVIEDMY": 3850, "\u0120LeD": 3851, "\u0120))||": 3852, "pendent": 3853, "ative": 3854, "Tolerance": 3855, "LED": 3856, "CUP": 3857, "\u0120minimun": 3858, "\u0120NOUSEV": 3859, "\u0120NOUSEM": 3860, "\u0120Form": 3861, "\u0120FMOD": 3862, "maximun": 3863, "du": 3864, "SV": 3865, "MEDN": 3866, "\u0120\u010a\u0120\u0120\u0120\u0120\u0120\u0120\u0120\u0120\u0120\u0120\u0120\u0120\u0120\u0120\u0120\u0120\u0120\u0120\u0120\u0120\u0120\u0120\u0120\u0120\u0120\u0120\u0120": 3867, "\u0120sele": 3868, "\u0120Vertical": 3869, "\u0120VB": 3870, "\u0120RET": 3871, "\u0120NMD": 3872, "\u0120NMDPC": 3873, "\u0120MAP": 3874, "\u0120LAYOUT": 3875, "\u0120Isolating": 3876, "\u0120HEL": 3877, "\u0120HELP": 3878, "\u0120FIXING": 3879, "\u0120FILE": 3880, "\u0120FOR": 3881, "\u0120ECT": 3882, "\u0120Datatyp": 3883, "\u0120Datatype": 3884, "\u0120ALLPO": 3885, "\u0120ASSI": 3886, "\u0120ASSIGN": 3887, "\u0120ASSIGNMENT": 3888, "\u0120)?": 3889, "\u0120RA": 3890, "\u0120RAND": 3891, "\u0120RANDOM": 3892, "vered": 3893, "iT": 3894, "file": 3895, "dpfile": 3896, "define": 3897, "PNP": 3898, "NPN": 3899, "JUST": 3900, "INDx": 3901, "FOR": 3902, "EE": 3903, "0550": 3904, "\u0120There": 3905, "\u0120In": 3906, "\u012036": 3907, "IB": 3908, "\u0120sec": 3909, "\u0120perim": 3910, "\u0120overla": 3911, "\u0120mis": 3912, "\u0120POn": 3913, "ULV": 3914, "ULVIEDMY": 3915, "BIB": 3916, "191": 3917, "106": 3918, "\u0120second": 3919, "\u0120conser": 3920, "\u0120conserv": 3921, "\u0120conservative": 3922, "\u0120VTULNi": 3923, "\u0120VTULPi": 3924, "\u0120VTSNi": 3925, "\u0120VTSPi": 3926, "\u0120VTLNi": 3927, "\u0120VTLPi": 3928, "83": 3929, "0495": 3930, "\u0120setup": 3931, "\u0120around": 3932, "\u0120VSS": 3933, "\u0120NWis": 3934, "\u0120NSD": 3935, "\u0120DSTP": 3936, "\u0120ALLMD": 3937, "\u0120UN": 3938, "\u0120UNID": 3939, "\u0120UNIDIRE": 3940, "\u0120UNIDIRECT": 3941, "\u0120UNIDIRECTION": 3942, "\u0120UNIDIRECTIONAL": 3943, "RWx": 3944, "ODx": 3945, "MOMCAP": 3946, "89": 3947, "540": 3948, "2100": 3949, "\u0120res": 3950, "\u0120above": 3951, "\u0120Table": 3952, "\u0120Connec": 3953, "ception": 3954, "9100": 3955, "139": 3956, "134": 3957, "\u0120takes": 3958, "\u0120last": 3959, "\u0120found": 3960, "\u0120dependent": 3961, "\u0120Exception": 3962, "\u0120400": 3963, "\u010a\u0120\u0120\u0120\u0120\u0120\u0120\u0120\u0120\u0120\u0120\u0120": 3964, "}}.": 3965, "short": 3966, "ic": 3967, "covered": 3968, "LAX": 3969, "+)": 3970, "+(": 3971, "\u0120surrounded": 3972, "\u0120open": 3973, "\u0120indu": 3974, "\u0120inductor": 3975, "\u0120VBCPL": 3976, "\u0120VA": 3977, "\u0120VACPL": 3978, "\u0120SRDMPi": 3979, "\u0120Condition": 3980, "\u0120CBDi": 3981, "\u010a\u0120\u0120\u0120\u0120\u0120\u0120\u0120\u0120\u0120\u0120\u0120\u0120\u0120\u0120\u0120\u0120\u0120\u0120\u0120\u0120\u0120\u0120\u0120\u0120\u0120\u0120\u0120\u0120\u0120\u0120\u0120\u0120\u0120": 3982, "ii": 3983, "Vol": 3984, "CrtOD": 3985, "Core": 3986, "825": 3987, "468": 3988, "153": 3989, "\u0120Do": 3990, "vity": 3991, "tivity": 3992, "loat": 3993, "PSDi": 3994, "LastTrGATE": 3995, "131": 3996, "\u0120No": 3997, "\u0120MTOP": 3998, "vex": 3999, "ection": 4000, "PG": 4001, "PGM": 4002, "OGDMY": 4003, "NPOB": 4004, "HVD": 4005, "FDMY": 4006, "DCPODE": 4007, "ALOGDMY": 4008, "485": 4009, "1220": 4010, "\u0120\u010a\u0120\u0120\u0120\u0120\u0120\u0120\u0120\u0120\u0120\u0120\u0120\u0120\u0120\u0120\u0120": 4011, "\u0120perimeter": 4012, "\u0120overlapping": 4013, "\u0120coincide": 4014, "\u0120Note": 4015, "\u010a\u0120\u0120\u0120\u010a\u010a\u0120": 4016, "mA": 4017, "lamp": 4018, "170": 4019, "1390": 4020, "117": 4021, "\".": 4022, "\u0120SRDCMDi": 4023, "\u0120Ratio": 4024, "LUPVIEDMY": 4025, "0930": 4026, ".(": 4027, "\u0120protection": 4028, "\u0120connectivity": 4029, "\u0120cont": 4030, "\u0120PWELis": 4031, "\u0120Lg": 4032, "\u0120LO": 4033, "\u0120LOW": 4034, "\u0120DEFINE": 4035, "op": 4036, "VTULP": 4037, "72": 4038, "4860": 4039, "1150": 4040, "\u0120resis": 4041, "\u0120resistor": 4042, "\u0120off": 4043, "\u0120SLVxCB": 4044, "\u0120Channel": 4045, "\u0120\u010a\u0120\u0120\u0120\u0120\u0120\u0120\u0120\u0120\u0120\u0120\u0120\u0120\u0120\u0120\u0120\u0120\u0120\u0120\u0120\u0120\u0120": 4046, "800": 4047, "\u0120DyCBpre": 4048, "\u0120DyCApre": 4049, "\u0120DxCBpre": 4050, "\u0120DxCApre": 4051, "\u0120BJTEDMY": 4052, "\u012062": 4053, "sz": 4054, "rG": 4055, "orbidden": 4056, "TrG": 4057, "Shape": 4058, "RVDMY": 4059, "Forbidden": 4060, "\u0120\u0120\u0120\u0120\u010a\u0120\u0120\u0120\u0120\u0120\u0120\u0120\u0120\u0120\u0120\u0120\u0120": 4061, "\u0120xs": 4062, "\u0120tile": 4063, "\u0120LUPDWDMY": 4064, "\u0120Connect": 4065, "inal": 4066, "core": 4067, "air": 4068, "POMM": 4069, "\u0120{{{{{{": 4070, "\u0120finger": 4071, "\u010a\u0120\u0120\u0120\u0120\u0120\u0120\u0120\u0120\u0120\u0120\u0120\u0120\u0120\u0120\u0120\u0120\u0120\u0120\u0120\u0120\u0120\u0120\u0120\u0120\u0120\u0120\u0120\u0120\u0120\u0120\u0120": 4072, "WC": 4073, "SVxCA": 4074, "PROJ": 4075, "PAIR": 4076, "OK": 4077, "CBDi": 4078, "8100": 4079, "2620": 4080, "0515": 4081, "\u0120{((": 4082, "\u0120unbalanced": 4083, "\u0120NPUi": 4084, "\u0120360": 4085, "\u010a\u010a\u010a\u010a\u0120\u0120": 4086, "405": 4087, "\u010a\u010a\u0120\u0120\u0120": 4088, "]}]": 4089, "VERTEX": 4090, "MFU": 4091, "ALSE": 4092, "ABUT": 4093, "102": 4094, "073": 4095, "0615": 4096, "\u0120MPis": 4097, "NT": 4098, "GUIDELINE": 4099, "1280": 4100, "\u012083": 4101, "preV": 4102, "iMPi": 4103, "iMD": 4104, "iILP": 4105, "EXTEND": 4106, "\u0120sch": 4107, "\u0120sche": 4108, "\u0120scheme": 4109, "\u0120lar": 4110, "\u0120channel": 4111, "\u0120Rect": 4112, "\u0120200": 4113, "\u012016": 4114, "unction": 4115, "fined": 4116, "REG": 4117, "1870": 4118, "087": 4119, "\u0120\u0120\u010a\u0120\u0120\u0120\u0120\u0120\u0120": 4120, "\u0120viol": 4121, "\u0120unif": 4122, "\u0120unifor": 4123, "\u0120uniform": 4124, "\u0120St": 4125, "\u0120Strain": 4126, "\u0120Strained": 4127, "\u0120Power": 4128, "\u0120ID": 4129, "mask": 4130, "float": 4131, "exclud": 4132, "excluding": 4133, "RGN": 4134, "096": 4135, "043": 4136, "\u0120WPOM": 4137, "\u0120VARi": 4138, "\u0120FEOLBLK": 4139, "CPP": 4140, "ACTIVE": 4141, "420": 4142, "1040": 4143, "0105": 4144, ")==": 4145, "\u0120Rectangular": 4146, "\u0120NWRiT": 4147, "2180": 4148, "055": 4149, "ind": 4150, "UX": 4151, "AUX": 4152, "0910": 4153, "\u0120which": 4154, "\u0120ref": 4155, "\u0120refer": 4156, "\u0120cross": 4157, "\u0120PROJE": 4158, "\u0120PROJECTING": 4159, "\u0120Fine": 4160, "RUN": 4161, "Projected": 4162, "ASE": 4163, "2410": 4164, "188": 4165, "079": 4166, "\u0120RHTNn": 4167, "\u012050000": 4168, "\u0120k": 4169, "urre": 4170, "connected": 4171, "bi": 4172, "DOT": 4173, "455": 4174, "285": 4175, "))+": 4176, "(!!": 4177, "\u0120three": 4178, "\u0120Dmy": 4179, "txt": 4180, "ngx": 4181, "holex": 4182, "cs": 4183, "NWx": 4184, "NTN": 4185, "INJ": 4186, "FLATTEN": 4187, "3790": 4188, "3370": 4189, "00016": 4190, "00022": 4191, "\u0120NPS": 4192, "480": 4193, "412": 4194, "053": 4195, "0330": 4196, "\u0120\u0120\u0120\u0120\u0120\u010a\u0120": 4197, "\u0120SHORT": 4198, "\u0120NTNi": 4199, "\u0120CPOi": 4200, "LUPWDMY": 4201, "306": 4202, "\u0120unit": 4203, "\u0120non": 4204, "\u0120loop": 4205, "\u0120conf": 4206, "\u0120config": 4207, "\u0120configur": 4208, "\u0120configuration": 4209, "\u0120TPCDMY": 4210, "\u010a\u0120\u0120\u0120\u0120\u0120\u0120\u0120\u0120\u0120\u0120\u0120\u0120\u0120\u0120\u0120\u0120\u0120\u0120\u0120\u0120\u0120\u0120\u0120\u0120\u0120\u0120\u0120\u0120\u0120\u0120\u0120\u0120\u0120\u0120\u0120\u0120\u0120\u0120\u0120\u0120\u0120\u0120\u0120\u0120\u0120\u0120\u0120\u0120": 4211, "sync": 4212, "oded": 4213, "iv": 4214, "coded": 4215, "ascoded": 4216, "VIAu": 4217, "NWRSTI": 4218, "3240": 4219, "1450": 4220, "132": 4221, "0705": 4222, "\u0120violate": 4223, "\u0120Two": 4224, "\u0120SP": 4225, "\u0120RELAX": 4226, "\u0120Iden": 4227, "\u0120BPCDMY": 4228, "\u0120BJTDMY": 4229, "ag": 4230, "380": 4231, "2450": 4232, "168": 4233, "105": 4234, "\u0120RMDMYAP": 4235, "\u0120PPS": 4236, "\u0120Definitions": 4237, "172": 4238, ")}]": 4239, "\u0120\u0120\u010a\u0120\u0120\u0120\u0120\u0120\u0120\u0120\u0120\u0120\u0120\u0120\u0120\u0120\u0120\u0120\u0120\u0120\u0120\u0120\u0120\u0120\u0120\u0120\u0120\u0120\u0120\u0120\u0120\u0120\u0120": 4240, "\u0120TIV": 4241, "\u0120Pair": 4242, "\u0120PITCH": 4243, "\u0120LOWMEDN": 4244, "\u0120CRI": 4245, "\u0120CRITICAL": 4246, "ount": 4247, "0865": 4248, ")),(": 4249, "()": 4250, "\u0120sup": 4251, "\u0120supp": 4252, "\u0120ins": 4253, "\u0120diag": 4254, "\u0120diagonal": 4255, "TR": 4256, "EXCLUDE": 4257, "123": 4258, "1130": 4259, "\u0120DN": 4260, "\u0120CHKy": 4261, "\u0120CHKx": 4262, "dd": 4263, "STEP": 4264, "RWi": 4265, "2780": 4266, "2750": 4267, "2680": 4268, "2650": 4269, "2640": 4270, "2550": 4271, "2540": 4272, "2520": 4273, "121": 4274, "0890": 4275, "\u0120mm": 4276, "\u0120direct": 4277, "\u0120convex": 4278, "\u0120WPO": 4279, "\u0120WPOUO": 4280, "\u0120WB": 4281, "\u0120RHDMY": 4282, "\u0120POMUO": 4283, "\u0120ODMUO": 4284, "\u0120NWEL": 4285, "\u0120IOPAD": 4286, "\u0120GATED": 4287, "\u0120Drain": 4288, "ured": 4289, "bility": 4290, "PATH": 4291, "NWSTRAP": 4292, "\u0120your": 4293, "\u0120supply": 4294, "\u0120select": 4295, "\u0120ju": 4296, "\u0120dense": 4297, "\u0120als": 4298, "\u0120also": 4299, "\u0120Vya": 4300, "\u0120Vy": 4301, "\u0120Vxa": 4302, "\u0120POMMB": 4303, "\u0120MyaR": 4304, "\u0120Mxd": 4305, "\u0120Identi": 4306, "\u0120Identif": 4307, "\u0120Identify": 4308, "\u0120DAT": 4309, "\u0120DATA": 4310, "\u0120\">=": 4311, "\u0120TY": 4312, "\u0120TYP": 4313, "\u0120TYPE": 4314, "yy": 4315, "meas": 4316, "measured": 4317, "ived": 4318, "erived": 4319, "connect": 4320, "circuit": 4321, "ail": 4322, "SRDMDi": 4323, "NOD": 4324, "DOWN": 4325, "Derived": 4326, "558": 4327, "243": 4328, "104": 4329, "0810": 4330, ")]].": 4331, "\u0120det": 4332, "\u0120detail": 4333, "\u0120conta": 4334, "\u0120contact": 4335, "CUT": 4336, "\u0120using": 4337, "\u0120med": 4338, "\u0120medium": 4339, "\u0120dmyPO": 4340, "\u0120cate": 4341, "\u0120categ": 4342, "\u0120categor": 4343, "\u0120category": 4344, "\u0120WIDE": 4345, "\u0120SLVxCA": 4346, "\u0120Section": 4347, "\u0120PHIA": 4348, "\u0120NHIA": 4349, "\u0120MCELL": 4350, "\u0120END": 4351, "\u0120CMDS": 4352, "\u0120165": 4353, "\u0120\u010a\u010a\u0120\u0120": 4354, "projec": 4355, "projection": 4356, "connection": 4357, "TIN": 4358, "PWSTRAP": 4359, "BCWDMY": 4360, "086": 4361, ")\",": 4362, "\u0120\u010a\u010a\u0120\u0120\u0120": 4363, "\u0120POD": 4364, "\u01202000": 4365, "\u0120ver": 4366, "\u0120verte": 4367, "ump": 4368, "DSTP": 4369, "BJTDMY": 4370, "BJTEDMY": 4371, "\u0120\u010a\u0120\u0120\u0120\u0120\u0120\u0120\u0120\u0120\u0120\u0120\u0120\u0120": 4372, "\u0120{{{{{{{": 4373, "\u0120vertex": 4374, "\u0120meet": 4375, "\u0120inc": 4376, "\u0120ground": 4377, "\u0120clos": 4378, "ess": 4379, "VSSDMY": 4380, "VDDDMY": 4381, "STACK": 4382, "\u0120many": 4383, "\u0120lin": 4384, "\u0120lines": 4385, "\u0120contin": 4386, "\u0120continu": 4387, "\u0120continuous": 4388, "\u0120DMTOP": 4389, "ning": 4390, "arning": 4391, "CHKC": 4392, "CHKB": 4393, "CHKA": 4394, "165": 4395, "116": 4396, "\u0120\u0120\u0120\u0120\u0120\u0120\u0120\u0120\u0120\u0120\u0120\u0120\u0120\u0120\u0120\u0120\u0120": 4397, "\u0120loc": 4398, "\u0120located": 4399, "\u0120cs": 4400, "\u0120csdmy": 4401, "\u0120FPTAP": 4402, "\u0120FNTAP": 4403, "\u0120Exc": 4404, "\u0120CONFIN": 4405, "\u0120CONFINED": 4406, "\u0120256": 4407, "\u010a\u0120\u0120\u0120\u0120\u0120\u0120\u0120\u0120\u0120\u0120\u0120\u0120\u0120\u0120\u0120\u0120\u0120\u0120\u0120\u0120\u0120\u0120\u0120\u0120\u0120\u0120\u0120\u0120\u0120\u0120\u0120\u0120\u0120\u0120\u0120\u0120\u0120\u0120\u0120\u0120\u0120": 4408, "lip": 4409, "VAVE": 4410, "VS": 4411, "NOPOB": 4412, "Not": 4413, "EXTENTS": 4414, "CSRBIB": 4415, "CONVAVE": 4416, "250": 4417, "154": 4418, "0850": 4419, "084": 4420, "041": 4421, "0140": 4422, ")}.": 4423, "\u0120\u0120\u010a\u010a\u010a\u0120": 4424, "\u0120odd": 4425, "\u0120consid": 4426, "\u0120considers": 4427, "\u0120bef": 4428, "\u0120before": 4429, "sted": 4430, "MCELL": 4431, "3060": 4432, "295": 4433, "029": 4434, "%,": 4435, "\u0120polys": 4436, "\u0120judge": 4437, "\u0120judgement": 4438, "\u0120dmyOD": 4439, "\u0120cascoded": 4440, "\u0120bump": 4441, "\u0120anode": 4442, "\u0120MFU": 4443, "\u0120Flip": 4444, "\u0120FO": 4445, "\u0120BD": 4446, "\u0120276": 4447, "\u0120\u010a\u0120\u0120\u0120\u0120\u0120\u0120\u0120\u0120\u0120\u0120\u0120\u0120\u0120\u0120\u0120\u0120\u0120\u0120\u0120\u0120\u0120\u0120": 4448, "UD": 4449, "TPOR": 4450, "NTNi": 4451, "LUPDWDMY": 4452, "FALSE": 4453, "CPOi": 4454, "504": 4455, "275": 4456, "1820": 4457, "0520": 4458, "0505": 4459, "\u0120excluding": 4460, "\u0120316": 4461, "\u0120296": 4462, "OC": 4463, "315": 4464, "1440": 4465, "052": 4466, "0125": 4467, "\u0120whole": 4468, "\u0120si": 4469, "\u0120comp": 4470, "\u0120comply": 4471, "\u0120RHTNcs": 4472, "\u0120LUPULVIEDMY": 4473, "\u0120Chk": 4474, "\u0120347": 4475, "\u0120341": 4476, "\u0120319": 4477, "\u0120318": 4478, "\u0120313": 4479, "\u0120312": 4480, "\u0120299": 4481, "\u0120293": 4482, "\u0120292": 4483, "\u0120298": 4484, "bal": 4485, "TO": 4486, "SRN": 4487, "SRNK": 4488, "HIANMOS": 4489, "HOC": 4490, "0670": 4491, "0610": 4492, "0285": 4493, "02736": 4494, "\u0120\u0120\u0120\u0120\u010a": 4495, "\u0120exa": 4496, "\u0120examp": 4497, "\u0120example": 4498, "\u0120POS": 4499, "\u0120Confined": 4500, "\u0120150": 4501, "\u010a\u0120\u0120\u0120\u0120\u010a\u010a\u0120": 4502, "\u010a\u0120\u0120\u0120\u0120\u010a": 4503, "CBx": 4504, "3500": 4505, "0270": 4506, "0130": 4507, "\u0120thir": 4508, "\u0120third": 4509, "\u0120orig": 4510, "\u0120original": 4511, "\u0120des": 4512, "\u0120conndition": 4513, "\u0120connditions": 4514, "\u0120ECXP": 4515, "\u0120DMyx": 4516, "\u012035": 4517, "\u012070": 4518, "\u010a\u0120\u0120\u0120\u010a\u0120": 4519, "xdn": 4520, "mxdn": 4521, "iM": 4522, "PMi": 4523, "NINDx": 4524, "CMDiM": 4525, "0390": 4526, "0120": 4527, "\u0120\u0120\u010a\u0120\u0120\u0120\u0120\u0120\u0120\u0120\u0120\u0120\u0120\u0120\u0120\u0120\u0120\u0120\u0120\u0120\u0120\u0120\u0120\u0120\u0120\u0120\u0120\u0120\u0120\u0120\u0120\u0120\u0120\u0120\u0120\u0120": 4528, "\u0120larger": 4529, "\u0120WBLK": 4530, "\u0120USE": 4531, "\u0120SCRu": 4532, "\u0120SCRd": 4533, "\u0120RFDMY": 4534, "\u0120POiSRAM": 4535, "\u0120PADDMY": 4536, "\u0120ODiSRAM": 4537, "\u0120IODMY": 4538, "\u0120FBS": 4539, "\u0120CPOiSRAM": 4540, "\u0120BMP": 4541, "\u0120BCPODE": 4542, "\u0120ANALOGDMY": 4543, "rd": 4544, "horizontal": 4545, "SDE": 4546, "GATED": 4547, "ELD": 4548, "334": 4549, "2880": 4550, "0770": 4551, "0465": 4552, "007": 4553, "014": 4554, "\u0120~~((": 4555, "\u0120stated": 4556, "\u0120rules": 4557, "\u0120modifi": 4558, "\u0120modified": 4559, "\u0120mismatch": 4560, "\u0120curre": 4561, "\u0120curren": 4562, "\u0120current": 4563, "\u0120WS": 4564, "\u0120TRUN": 4565, "\u0120TRUNCA": 4566, "\u0120TRUNCATE": 4567, "\u0120RWn": 4568, "\u0120PMi": 4569, "\u0120MPCDMY": 4570, "\u0120Clamp": 4571, "\u0120279": 4572, "\u0120278": 4573, "\u0120273": 4574, "\u0120272": 4575, "\u0120259": 4576, "\u0120253": 4577, "\u0120252": 4578, "\u0120258": 4579, "\u0120!((": 4580, "}])": 4581, "licon": 4582, "inside": 4583, "high": 4584, "Se": 4585, "NSTP": 4586, "LLECT": 4587, "Count": 4588, "1795": 4589, "0585": 4590, "0275": 4591, "+/": 4592, "\u0120\u0120\u010a\u0120\u0120\u0120\u0120\u0120\u0120\u0120\u0120\u0120\u0120\u0120\u0120\u0120\u0120\u0120\u0120\u0120\u0120\u0120\u0120\u0120\u0120": 4593, "\u0120silicon": 4594, "\u0120oc": 4595, "\u0120occ": 4596, "\u0120367": 4597, "\u0120361": 4598, "\u0120350": 4599, "itch": 4600, "UNDEF": 4601, "2560": 4602, "1020": 4603, "\u0120proven": 4604, "\u0120pitch": 4605, "\u0120devices": 4606, "SEM": 4607, "SEMI": 4608, "LUPULVIEDMY": 4609, "CHKx": 4610, "158": 4611, "111": 4612, "\u0120wan": 4613, "\u0120wants": 4614, "\u0120customer": 4615, "\u0120MET": 4616, "\u0120METAL": 4617, "\u0120FOB": 4618, "balla": 4619, "SRPOLY": 4620, "221": 4621, "276": 4622, "1610": 4623, "078": 4624, "023": 4625, "\u0120shor": 4626, "\u0120Warning": 4627, "\u0120UBMu": 4628, "\u0120Metals": 4629, "\u0120More": 4630, "\u0120CBu": 4631, "using": 4632, "tic": 4633, "non": 4634, "ink": 4635, "dummy": 4636, "cted": 4637, "Wu": 4638, "VIAT": 4639, "Source": 4640, "RMDMYtop": 4641, "OND": 4642, "ODVD": 4643, "Link": 4644, "Less": 4645, "Gate": 4646, "Fu": 4647, "BOND": 4648, "281": 4649, "0710": 4650, "006": 4651, "\u0120toge": 4652, "\u0120together": 4653, "\u0120pass": 4654, "\u0120inser": 4655, "\u0120design": 4656, "\u0120VIAs": 4657, "\u0120IPD": 4658, "\u0120CMDR": 4659, "self": 4660, "ark": 4661, "POMMB": 4662, "HORIZONTAL": 4663, "Check": 4664, "351": 4665, "\u0120\u0120\u010a\u0120\u0120\u0120\u0120\u0120\u0120\u0120\u0120\u0120\u0120\u0120\u0120\u0120\u0120\u0120\u0120\u0120\u0120\u0120\u0120\u0120\u0120\u0120\u0120\u0120\u0120\u0120\u0120\u0120\u0120\u0120\u0120": 4666, "\u0120underd": 4667, "\u0120underdri": 4668, "\u0120underdrive": 4669, "\u0120smaller": 4670, "\u0120insertion": 4671, "\u0120increa": 4672, "\u0120increase": 4673, "\u0120clamp": 4674, "\u0120WA": 4675, "\u0120WAIV": 4676, "\u0120WAIVEx": 4677, "\u0120TPOR": 4678, "\u0120Long": 4679, "\u0120ExcL": 4680, "\u0120Excp": 4681, "\u0120CSRBIB": 4682, "\u0120COLLECT": 4683, "\u0120BUT": 4684, "\u0120BUTT": 4685, "\u0120BASE": 4686, "notCMD": 4687, "arker": 4688, "WPOUO": 4689, "WBLK": 4690, "WPOM": 4691, "WON": 4692, "WONP": 4693, "VARi": 4694, "SRDMPi": 4695, "SRDCMDi": 4696, "SCRu": 4697, "SCRd": 4698, "SLV": 4699, "RHDMY": 4700, "Ry": 4701, "Rx": 4702, "RFDMY": 4703, "POMUO": 4704, "POiSRAM": 4705, "PADDMY": 4706, "PAnode": 4707, "ODcs": 4708, "ODiSRAM": 4709, "ODDN": 4710, "ODMUO": 4711, "NAnode": 4712, "NR": 4713, "MDE": 4714, "MDEX": 4715, "LUPIEDMY": 4716, "IFF": 4717, "Hx": 4718, "HB": 4719, "GS": 4720, "DECAPDMY": 4721, "DIFF": 4722, "DH": 4723, "CPOiSRAM": 4724, "BMP": 4725, "BIG": 4726, "BCPODE": 4727, "ANALOGDMY": 4728, "3760": 4729, "224": 4730, "059": 4731, "00024": 4732, ")||": 4733, "()]": 4734, "\u0120\u0120\u010a\u0120\u0120\u0120\u0120\u0120\u0120\u0120\u0120\u0120\u0120": 4735, "\u0120\u010a\u0120\u0120\u0120\u0120\u0120": 4736, "ignal": 4737, "ffective": 4738, "4425": 4739, "256": 4740, "1070": 4741, "\u0120perpend": 4742, "\u0120perpendic": 4743, "\u0120perpendicular": 4744, "\u0120GATEPW": 4745, "\u0120GATENW": 4746, "\u0120Forb": 4747, "\u0120Forbbid": 4748, "\u0120Forbbiden": 4749, "\u0120FILLEROD": 4750, "\u0120\u010a\u010a\u010a\u0120": 4751, "preH": 4752, "otCTM": 4753, "inCTM": 4754, "exc": 4755, "TIV": 4756, "Fin": 4757, "DMxs": 4758, "0975": 4759, "0845": 4760, "0001": 4761, "003": 4762, "\")),": 4763, "\")))": 4764, "\u0120directly": 4765, "\u0120cri": 4766, "\u0120criter": 4767, "\u0120criteria": 4768, "\u0120WBDMY": 4769, "\u0120ODD": 4770, "\u0120DVIAxa": 4771, "\u0120Center": 4772, "\u0120Centerline": 4773, "\u0120337": 4774, "\u0120331": 4775, "\u0120126": 4776, "\u0120123": 4777, "ension": 4778, "ballasted": 4779, "WIRE": 4780, "TPCDMY": 4781, "PPN": 4782, "PPNN": 4783, "End": 4784, "BP": 4785, "66": 4786, "600": 4787, "340": 4788, "2200": 4789, "1250": 4790, "1110": 4791, "0690": 4792, "\u0120\u010a\u0120\u010a\u0120": 4793, "\u0120selected": 4794, "\u0120proble": 4795, "\u0120problem": 4796, "\u0120close": 4797, "\u0120causing": 4798, "\u0120cer": 4799, "\u0120cert": 4800, "\u0120certain": 4801, "\u0120WAIVED": 4802, "\u0120MetalFuseLink": 4803, "\u0120LE": 4804, "\u0120LESS": 4805, "\u0120BPOV": 4806, "WAIVEABLE": 4807, "Dense": 4808, "AREAs": 4809, "\u0120\u0120\u010a\u010a": 4810, "\u0120cad": 4811, "evice": 4812, "TPM": 4813, "PLD": 4814, "Mu": 4815, "Device": 4816, "Checking": 4817, "594": 4818, "2020": 4819, "1620": 4820, "1010": 4821, "\u0120take": 4822, "\u0120fingers": 4823, "\u0120four": 4824, "\u0120fourth": 4825, "\u0120ea": 4826, "\u0120care": 4827, "\u0120Wide": 4828, "\u0120Ry": 4829, "\u0120Rx": 4830, "\u0120PSDn": 4831, "\u0120POBLK": 4832, "\u0120ODj": 4833, "\u0120NSTPn": 4834, "\u0120Min": 4835, "\u0120DUMMYM": 4836, "\u012032": 4837, "\u0120)*": 4838, "ticle": 4839, "pick": 4840, "inger": 4841, "finger": 4842, "eep": 4843, "defined": 4844, "WIMP": 4845, "TPOW": 4846, "TNHB": 4847, "RAN": 4848, "RANGE": 4849, "Row": 4850, "CAx": 4851, "Col": 4852, "Action": 4853, "1720": 4854, "103": 4855, ")>": 4856, "\u0120signal": 4857, "\u0120max": 4858, "\u0120keep": 4859, "\u0120common": 4860, "\u0120WAIVEy": 4861, "\u0120SK": 4862, "\u0120SKIP": 4863, "\u0120RECT": 4864, "\u0120MDS": 4865, "\u0120Function": 4866, "\u0120FIN": 4867, "\u0120ENDPO": 4868, "\u0120ENDPOINT": 4869, "\u0120ECYP": 4870, "\u0120CUP": 4871, "\u0120BEOLBLK": 4872, "\u0120BIG": 4873, "\u0120250": 4874, "\u0120\u010a\u0120\u0120\u0120\u0120\u0120\u0120\u0120": 4875, "}}})": 4876, "mpa": 4877, "assive": 4878, "WL": 4879, "TSV": 4880, "SRDCMD": 4881, "Square": 4882, "PRBOUNDARY": 4883, "LOWMEDN": 4884, "FILLEROD": 4885, "CONCAV": 4886, "5940": 4887, "5850": 4888, "4800": 4889, "4140": 4890, "3960": 4891, "216": 4892, "0475": 4893, "031": 4894, ")(": 4895, "\u0120coincid": 4896, "\u0120coincident": 4897, "\u0120Na": 4898, "\u0120Isolated": 4899, "\u0120Da": 4900, "\u0120Aa": 4901, "inter": 4902, "arch": 4903, "VERTICAL": 4904, "Search": 4905, "SMALL": 4906, "CUPCB": 4907, "Aa": 4908, "357": 4909, "2320": 4910, "%]": 4911, "\u0120near": 4912, "\u0120nearby": 4913, "\u0120TSMC": 4914, "\u0120CrtOD": 4915, "}]}": 4916, "ft": 4917, "efer": 4918, "VBCPL": 4919, "VACPL": 4920, "FEOLBLK": 4921, "ANGLED": 4922, "760": 4923, "382": 4924, "1960": 4925, "0170": 4926, "\u0120\u0120\u0120\u0120\u0120\u0120\u0120\u0120\u0120\u0120\u0120\u0120\u0120\u0120\u0120\u0120\u0120\u0120\u0120\u0120\u0120\u0120\u0120\u0120": 4927, "\u0120they": 4928, "\u0120rel": 4929, "\u0120relia": 4930, "\u0120reliability": 4931, "\u0120details": 4932, "\u0120Vias": 4933, "\u0120RWis": 4934, "\u0120NSDj": 4935, "\u0120NETID": 4936, "\u0120DMtop": 4937, "\u0120CHBx": 4938, "}})": 4939, "ral": 4940, "poly": 4941, "entral": 4942, "RWSTRAP": 4943, "NON": 4944, "CHKy": 4945, "BASE": 4946, "1180": 4947, "\u0120\u0120\u0120\u0120\u010a\u010a\u010a\u010a\u0120\u0120": 4948, "\u0120table": 4949, "\u0120sum": 4950, "\u0120pres": 4951, "\u0120present": 4952, "\u0120possibility": 4953, "\u0120operation": 4954, "\u0120nom": 4955, "\u0120nominal": 4956, "\u0120kind": 4957, "\u0120intersection": 4958, "\u0120flow": 4959, "\u0120examples": 4960, "\u0120deg": 4961, "\u0120degr": 4962, "\u0120degrad": 4963, "\u0120degradation": 4964, "\u0120conc": 4965, "\u0120concer": 4966, "\u0120concern": 4967, "\u0120beh": 4968, "\u0120behind": 4969, "\u0120Sum": 4970, "\u0120Refer": 4971, "\u0120DIE": 4972, "\u012089": 4973, "\u0120(+": 4974, "tial": 4975, "iii": 4976, "SP": 4977, "RHTN": 4978, "RL": 4979, "POD": 4980, "MyaR": 4981, "LB": 4982, "205": 4983, "0990": 4984, "0790": 4985, "0486": 4986, "0219": 4987, "/-": 4988, "\u0120\u0120\u0120\u010a\u0120\u0120": 4989, "\u0120\u0120\u010a\u0120\u0120\u0120\u0120\u0120\u0120\u0120\u0120\u0120\u0120\u0120\u0120\u0120\u0120\u0120\u0120\u0120\u0120\u0120\u0120\u0120\u0120\u0120\u0120\u0120\u0120\u0120\u0120\u0120\u0120\u0120\u0120\u0120\u0120\u0120\u0120\u0120": 4990, "\u0120strap": 4991, "\u0120shorted": 4992, "\u0120large": 4993, "\u0120junction": 4994, "\u0120WARN": 4995, "\u0120SRDTN": 4996, "\u0120SLVIA": 4997, "\u0120ODA": 4998, "\u0120DMyz": 4999, "\u0120Cont": 5000, "\u0120Central": 5001, "xBVG": 5002, "total": 5003, "cell": 5004, "TP": 5005, "SIZING": 5006, "PRECHK": 5007, "Pcs": 5008, "ODA": 5009, "Ncs": 5010, "MPiM": 5011, "DRCGRID": 5012, "\u0120\u0120\u0120\u0120\u010a\u0120\u0120\u0120\u0120": 5013, "\u0120recognition": 5014, "\u0120good": 5015, "\u0120effective": 5016, "\u0120CENTERS": 5017, "\u0120BP": 5018, "}]},": 5019, "eside": 5020, "UL": 5021, "Side": 5022, "Short": 5023, "MAR": 5024, "MARK": 5025, "ESDLU": 5026, "69": 5027, "378": 5028, "296": 5029, "\u0120\u0120\u0120\u0120\u010a\u0120\u0120\u0120\u0120\u0120\u0120\u0120\u0120\u0120\u0120\u0120\u0120\u0120\u0120\u0120\u0120\u0120\u0120\u0120\u0120\u0120\u0120\u0120\u0120\u0120\u0120\u0120\u0120\u0120\u0120\u0120\u0120\u0120\u0120\u0120\u0120\u0120\u0120\u0120\u0120\u0120": 5030, "\u0120poten": 5031, "\u0120potential": 5032, "\u0120nets": 5033, "\u0120Passive": 5034, "\u0120PPR": 5035, "\u0120OVL": 5036, "\u0120LD": 5037, "\u0120FALSE": 5038, "\u0120EXCPT": 5039, "\u0120EXCPTION": 5040, "\u0120ERRDPO": 5041, "\u0120Convex": 5042, "\u0120CPOR": 5043, "\u0120ALLMDnotCMD": 5044, "\u0120500": 5045, "\u0120300": 5046, "\u010a\u010a\u0120\u0120\u010a\u0120": 5047, "nTrG": 5048, "less": 5049, "beside": 5050, "YS": 5051, "XS": 5052, "WH": 5053, "VGD": 5054, "URT": 5055, "UBMi": 5056, "SRGATE": 5057, "SHO": 5058, "SHOURT": 5059, "ODY": 5060, "ODVC": 5061, "ODPO": 5062, "Iso": 5063, "Hint": 5064, "FIELD": 5065, "EXTrGATE": 5066, "DVxs": 5067, "DVIAn": 5068, "COR": 5069, "COPY": 5070, "BODY": 5071, "BGA": 5072, "615": 5073, "257": 5074, "088": 5075, "0830": 5076, "0510": 5077, "02052": 5078, "0165": 5079, "/(": 5080, "\u0120dim": 5081, "\u0120dimension": 5082, "\u0120[!(": 5083, "\u010a\u0120\u0120\u0120\u0120\u010a\u0120\u0120\u0120": 5084, "}]})": 5085, "stage": 5086, "sli": 5087, "slice": 5088, "SLVxCA": 5089, "CU": 5090, "0055": 5091, "\u0120would": 5092, "\u0120there": 5093, "\u0120prop": 5094, "\u0120mer": 5095, "\u0120merge": 5096, "\u0120clu": 5097, "\u0120clust": 5098, "\u0120cluster": 5099, "\u0120TSV": 5100, "\u0120FBx": 5101, "\u0120FLO": 5102, "\u0120340": 5103, "\u012011": 5104, "der": 5105, "Wo": 5106, "WSE": 5107, "WE": 5108, "SAME": 5109, "RELAX": 5110, "POA": 5111, "GAB": 5112, "DUMMYM": 5113, "BGAB": 5114, "286": 5115, "202": 5116, "118": 5117, "0060": 5118, "00306": 5119, "\u0120well": 5120, "\u0120tim": 5121, "\u0120times": 5122, "\u0120occurre": 5123, "\u0120occurred": 5124, "\u0120bit": 5125, "\u0120NOH": 5126, "\u0120NOHI": 5127, "\u0120NOHIER": 5128, "\u0120CTMWR": 5129, "ternal": 5130, "Width": 5131, "QH": 5132, "Equal": 5133, "6610": 5134, "385": 5135, "335": 5136, "269": 5137, "1170": 5138, "0480": 5139, "00416": 5140, "0065": 5141, "\u0120\u0120\u0120\u010a\u0120\u0120\u0120\u0120\u0120\u0120\u0120\u0120\u0120\u0120": 5142, "\u0120~~(((": 5143, "\u0120too": 5144, "\u0120summation": 5145, "\u0120stage": 5146, "\u0120shi": 5147, "\u0120shift": 5148, "\u0120order": 5149, "\u0120cathode": 5150, "\u0120apply": 5151, "\u0120[!~(": 5152, "\u0120WSy": 5153, "\u0120WSx": 5154, "\u0120WBM": 5155, "\u0120Triangle": 5156, "\u0120Regions": 5157, "\u0120PSDcs": 5158, "\u0120POA": 5159, "\u0120NSTPis": 5160, "\u0120Number": 5161, "\u0120MnV": 5162, "\u0120Inside": 5163, "\u0120DmyPO": 5164, "\u0120DmyM": 5165, "\u0120DNWn": 5166, "\u0120Col": 5167, "\u0120Colle": 5168, "\u0120Collector": 5169, "\u0120BESIDE": 5170, "\u0120Base": 5171, "\u0120!(((": 5172, "\u0120}": 5173, "\u0120_": 5174, "ultra": 5175, "sig": 5176, "sigm": 5177, "sigma": 5178, "rdb": 5179, "otal": 5180, "color": 5181, "VOL": 5182, "TRIGGER": 5183, "TILE": 5184, "Total": 5185, "SELECT": 5186, "SAN": 5187, "SANI": 5188, "SANITY": 5189, "RiT": 5190, "QV": 5191, "Pins": 5192, "NWRiT": 5193, "MOD": 5194, "LS": 5195, "LD": 5196, "IMD": 5197, "GOO": 5198, "GP": 5199, "FPSTPi": 5200, "Confined": 5201, "CUPVIAT": 5202, "CPOEX": 5203, "899": 5204, "196": 5205, "0905": 5206, "0575": 5207, "0342": 5208, "0155": 5209, ")+~(": 5210, "\"))]": 5211, "\u0120VIAu": 5212, "\u0120PER": 5213, "\u0120type": 5214, "\u0120im": 5215, "\u010a\u0120\u010a\u0120\u0120": 5216, "ient": 5217, "Maximum": 5218, "828": 5219, "388": 5220, "2700": 5221, "1320": 5222, "081": 5223, "0630": 5224, "\u0120occur": 5225, "\u0120insu": 5226, "\u0120insuff": 5227, "\u0120insuffic": 5228, "\u0120insufficient": 5229, "\u0120contain": 5230, "\u0120cannot": 5231, "\u0120DUMVIA": 5232, "\u0120ter": 5233, "\u0120termi": 5234, "\u0120termian": 5235, "\u0120termianl": 5236, "marker": 5237, "Hig": 5238, "DUMVIA": 5239, "1560": 5240, "0970": 5241, ")]]": 5242, "\u0120\u0120\u0120\u0120\u010a\u0120\u0120\u0120\u0120\u0120\u0120\u0120\u0120\u0120\u0120\u0120\u0120\u0120\u0120\u0120\u0120\u0120\u0120\u0120\u0120": 5243, "\u0120centered": 5244, "\u0120POLYc": 5245, "\u0120POL": 5246, "\u0120PASSI": 5247, "\u0120PASSIVE": 5248, "\u0120Ne": 5249, "\u0120Next": 5250, "\u0120IMP": 5251, "\u0120Functional": 5252, "\u0120FINx": 5253, "\u0120FINxx": 5254, "\u0120FIELD": 5255, "\u012044": 5256, "\u0120255": 5257, "\u01201500": 5258, "rection": 5259, "]}}": 5260, "VI": 5261, "VICE": 5262, "Turn": 5263, "NWEL": 5264, "FLOT": 5265, "DEVICE": 5266, "BEOLBLK": 5267, "71": 5268, "5700": 5269, "3090": 5270, "390": 5271, "232": 5272, "1310": 5273, "0780": 5274, "077": 5275, "\u0120\u0120\u0120\u0120\u010a\u010a": 5276, "\u0120sepa": 5277, "\u0120separ": 5278, "\u0120separated": 5279, "\u0120marker": 5280, "\u0120data": 5281, "\u0120datab": 5282, "\u0120database": 5283, "\u0120WBVIA": 5284, "\u0120PWGATE": 5285, "\u0120NWGATE": 5286, "\u0120MPiM": 5287, "\u0120InFO": 5288, "\u0120BU": 5289, "\u0120BULK": 5290, "\u010a\u010a\u0120\u0120\u0120\u0120\u0120": 5291, "oP": 5292, "SRESD": 5293, "SN": 5294, "PWGATE": 5295, "POLYG": 5296, "POLYGON": 5297, "PoP": 5298, "NWGATE": 5299, "NM": 5300, "GATEPW": 5301, "GATENW": 5302, "CrtCMD": 5303, "BL": 5304, "6980": 5305, "4580": 5306, "337": 5307, "1420": 5308, "098": 5309, "0730": 5310, "0665": 5311, "0085": 5312, "\u0120specif": 5313, "\u0120specific": 5314, "\u0120internal": 5315, "\u0120Pattern": 5316, "\u0120Compa": 5317, "\u0120Compact": 5318, "\u012066": 5319, "\u0120\u010a\u0120\u0120\u0120\u0120\u0120\u0120\u0120\u0120\u0120": 5320, "\u012064": 5321, "\u010a\u0120\u0120\u0120\u0120\u0120\u0120\u0120\u0120\u0120\u0120\u0120\u0120\u0120\u0120\u0120\u0120\u0120\u0120\u0120\u0120\u0120\u0120\u0120\u0120\u0120\u0120\u0120": 5322, "interact": 5323, "With": 5324, "WD": 5325, "NODAL": 5326, "368": 5327, "182": 5328, "1700": 5329, "0980": 5330, "00368": 5331, "00168": 5332, "0015": 5333, ")*~(": 5334, "\u0120\u0120\u0120\u0120\u0120\u010a\u0120\u0120": 5335, "\u0120\u0120\u010a\u010a\u0120\u0120": 5336, "\u0120{{(": 5337, "\u0120ult": 5338, "\u0120ultra": 5339, "\u0120stair": 5340, "\u0120sha": 5341, "\u0120share": 5342, "\u0120proj": 5343, "\u0120project": 5344, "\u0120imp": 5345, "\u0120bitcell": 5346, "\u0120[>=": 5347, "\u0120VTEN": 5348, "\u0120TPOW": 5349, "\u0120Reticle": 5350, "\u0120RO": 5351, "\u0120RODMY": 5352, "\u0120PU": 5353, "\u0120PUSH": 5354, "\u0120Other": 5355, "\u0120FNOD": 5356, "\u0120FACTOR": 5357, "\u0120EMOD": 5358, "\u0120CUPVIAT": 5359, "\u0120Cy": 5360, "\u0120Count": 5361, "\u0120And": 5362, "seg": 5363, "ridge": 5364, "be": 5365, "GroupB": 5366, "GroupA": 5367, "FBE": 5368, "Cx": 5369, "92": 5370, "3510": 5371, "1360": 5372, "0545": 5373, "0525": 5374, "0405": 5375, "\u0120sol": 5376, "\u0120solid": 5377, "\u0120RES": 5378, "\u0120DMxs": 5379, "\u0120CUPCB": 5380, "\u0120600": 5381, "\u01203645": 5382, "\u0120275": 5383, "\u01201296": 5384, "\u0120.": 5385, "gger": 5386, "RAs": 5387, "Na": 5388, "MPCDMY": 5389, "Da": 5390, "1060": 5391, "\u0120shape": 5392, "\u0120incre": 5393, "\u0120compa": 5394, "\u0120comparing": 5395, "\u0120adju": 5396, "\u0120adjusted": 5397, "\u0120Source": 5398, "\u0120PODEW": 5399, "\u0120PERIM": 5400, "\u0120PERIMETER": 5401, "\u0120OUTER": 5402, "\u0120LOWER": 5403, "\u0120GT": 5404, "\u0120DNWis": 5405, "\u0120Bridge": 5406, "\u0120BPM": 5407, "\u012030000": 5408, "\u0120330": 5409, "\u010a\u0120\u0120\u010a": 5410, "ottom": 5411, "group": 5412, "but": 5413, "VIAyR": 5414, "RODMY": 5415, "REAL": 5416, "NSDj": 5417, "FOB": 5418, "BPCDMY": 5419, "146": 5420, "144": 5421, "013": 5422, "%}": 5423, "\u0120\u0120\u0120\u0120\u010a\u0120\u0120\u0120\u0120\u0120\u0120\u0120\u0120\u0120\u0120\u0120\u0120\u0120\u0120\u0120\u0120\u0120\u0120\u0120\u0120\u0120\u0120": 5424, "\u0120\u0120\u010a\u0120\u0120\u0120\u0120\u0120\u0120\u0120\u0120\u0120\u0120\u0120\u0120\u0120\u0120\u0120\u0120\u0120\u0120\u0120\u0120\u0120\u0120\u0120\u0120\u0120\u0120": 5425, "\u0120\u0120\u010a\u0120\u010a\u0120": 5426, "\u0120tap": 5427, "\u0120stagger": 5428, "\u0120staggered": 5429, "\u0120para": 5430, "\u0120param": 5431, "\u0120parameter": 5432, "\u0120opening": 5433, "\u0120fins": 5434, "\u0120dec": 5435, "\u0120decide": 5436, "\u0120active": 5437, "\u0120VTN": 5438, "\u0120NWS": 5439, "\u0120LMARK": 5440, "\u0120Distance": 5441, "VTi": 5442, "Ti": 5443, "SLs": 5444, "RT": 5445, "Poly": 5446, "LOBALNET": 5447, "GLOBALNET": 5448, "384": 5449, "228": 5450, "290": 5451, "1535": 5452, "142": 5453, "1370": 5454, "\u0120\u0120\u0120\u0120\u0120\u0120\u0120\u0120\u0120\u0120\u0120\u0120\u0120\u0120\u0120\u0120\u0120\u0120\u0120\u0120\u0120\u0120\u0120\u0120\u0120\u0120\u0120\u0120\u0120": 5455, "\u0120\u0120\u0120\u0120\u0120\u0120\u0120\u010a\u0120": 5456, "\u0120\u010a\u0120\u0120\u0120\u0120\u010a\u0120\u0120\u0120": 5457, "\u0120\u010a\u0120\u0120\u0120\u0120\u010a\u0120": 5458, "\u0120tape": 5459, "\u0120simultaneou": 5460, "\u0120simultaneouse": 5461, "\u0120simultaneousely": 5462, "\u0120shorter": 5463, "\u0120increments": 5464, "\u0120hand": 5465, "\u0120handl": 5466, "\u0120handling": 5467, "\u0120groups": 5468, "\u0120define": 5469, "\u0120ass": 5470, "\u0120assign": 5471, "\u0120act": 5472, "\u0120actually": 5473, "\u0120SRDODx": 5474, "\u0120SRPO": 5475, "\u0120ROUND": 5476, "\u0120PPEN": 5477, "\u0120POEX": 5478, "\u0120PASS": 5479, "\u0120NWOD": 5480, "\u0120Non": 5481, "\u0120NonF": 5482, "\u0120NonFunction": 5483, "\u0120MPdpfile": 5484, "\u0120MPS": 5485, "\u0120MDnotCMD": 5486, "\u0120MDdpfile": 5487, "\u0120MAY": 5488, "\u0120MPR": 5489, "\u0120LB": 5490, "\u0120LBR": 5491, "\u0120HOR": 5492, "\u0120HIGH": 5493, "\u0120GLOB": 5494, "\u0120FLOAT": 5495, "\u0120FLOATING": 5496, "\u0120ExcW": 5497, "\u0120EXTrGATE": 5498, "\u0120Direction": 5499, "\u0120DEV": 5500, "\u0120ChkW": 5501, "\u0120ChkL": 5502, "\u0120CPOdpfile": 5503, "\u0120CPOO": 5504, "\u0120CPOEX": 5505, "\u0120CPODN": 5506, "\u0120CMDdpfile": 5507, "\u0120BSH": 5508, "\u0120BCB": 5509, "\u0120BCA": 5510, "\u0120ACB": 5511, "\u0120ACA": 5512, "\u0120310": 5513, "\u01201818": 5514, "\u01201815": 5515, "\u01201812": 5516, "\u01201515": 5517, "\u01201512": 5518, "\u0120TH": 5519, "\u0120THIN": 5520, "jog": 5521, "grid": 5522, "condition": 5523, "_]": 5524, "[-": 5525, "[-=": 5526, "WS": 5527, "TIEy": 5528, "TIEx": 5529, "Seal": 5530, "SRPO": 5531, "SRDMP": 5532, "Stepping": 5533, "RHTNB": 5534, "RTMOMDMY": 5535, "POLYc": 5536, "PD": 5537, "PDG": 5538, "OF": 5539, "OFFGRID": 5540, "NECT": 5541, "MDW": 5542, "LMARK": 5543, "IMEXCL": 5544, "IS": 5545, "Float": 5546, "EXGS": 5547, "EXG": 5548, "EDGEy": 5549, "EDGEx": 5550, "ConB": 5551, "CONNECT": 5552, "ALLPO": 5553, "ALLMD": 5554, "Abut": 5555, "5780": 5556, "570": 5557, "451": 5558, "4010": 5559, "342": 5560, "307": 5561, "262": 5562, "245": 5563, "1950": 5564, "195": 5565, "1880": 5566, "1105": 5567, "05472": 5568, "02565": 5569, "0149": 5570, ")+!~((": 5571, ")+!((": 5572, "))*(": 5573, ")<=": 5574, "\u0120\u0120\u0120\u0120\u010a\u0120\u0120\u0120\u0120\u0120\u0120\u0120\u0120\u0120\u0120\u0120\u0120\u0120\u0120\u0120\u0120\u0120\u0120\u0120\u0120\u0120\u0120\u0120\u0120": 5575, "\u0120\u0120\u010a\u0120\u0120\u0120\u0120\u0120\u0120\u0120\u0120\u0120\u0120\u0120\u0120\u0120\u0120\u0120\u0120\u0120\u0120\u0120\u0120\u0120": 5576, "\u0120\u0120\u010a\u0120\u0120\u0120\u0120\u0120\u0120\u0120\u0120\u0120\u0120\u0120\u0120\u0120\u0120\u0120\u0120\u0120": 5577, "\u0120\u010a\u0120\u0120\u0120\u0120\u0120\u0120\u0120\u0120\u010a\u0120": 5578, "\u0120warning": 5579, "\u0120virtual": 5580, "\u0120case": 5581, "\u0120cou": 5582, "\u0120coup": 5583, "\u0120coupled": 5584, "\u0120Wire": 5585, "\u0120Vi": 5586, "\u0120NWRiTn": 5587, "\u0120NSDu": 5588, "\u0120From": 5589, "\u0120FTPM": 5590, "\u0120DMIMEXCL": 5591, "\u0120Delta": 5592, "\u012053": 5593, "\u012038": 5594, "\u0120357": 5595, "\u0120351": 5596, "\u0120290": 5597, "\u0120225": 5598, "\u010a\u0120\u0120\u0120\u0120\u0120\u0120\u0120\u0120\u0120\u0120\u0120\u0120\u0120\u0120\u0120\u0120\u0120\u0120\u0120\u0120\u0120\u0120\u0120\u0120\u0120\u0120\u0120\u0120\u0120": 5599, "ort": 5600, "ara": 5601, "aractor": 5602, "VBi": 5603, "SEL": 5604, "Sz": 5605, "Fig": 5606, "DVi": 5607, "DW": 5608, "DS": 5609, "DDTN": 5610, "Bond": 5611, "Bi": 5612, "BPM": 5613, "851": 5614, "5620": 5615, "5500": 5616, "331": 5617, "2160": 5618, "1630": 5619, "1380": 5620, "107": 5621, "1030": 5622, "092": 5623, "0880": 5624, "0455": 5625, "0195": 5626, "\u0120\u0120\u010a\u0120\u0120\u0120\u0120\u0120\u0120\u0120\u0120\u0120\u0120\u0120\u0120\u0120\u0120\u0120\u0120\u0120\u0120\u0120\u0120\u0120\u0120\u0120\u0120\u0120\u0120\u0120\u0120\u0120\u0120\u0120\u0120\u0120\u0120\u0120\u0120\u0120\u0120\u0120": 5627, "\u0120\u0120\u010a\u0120\u010a": 5628, "\u0120\u010a\u0120\u010a": 5629, "\u0120widths": 5630, "\u0120umin": 5631, "\u0120turned": 5632, "\u0120tig": 5633, "\u0120tigh": 5634, "\u0120tighten": 5635, "\u0120shapes": 5636, "\u0120rela": 5637, "\u0120related": 5638, "\u0120possibe": 5639, "\u0120pa": 5640, "\u0120package": 5641, "\u0120ox": 5642, "\u0120oxide": 5643, "\u0120gen": 5644, "\u0120gener": 5645, "\u0120generation": 5646, "\u0120endca": 5647, "\u0120endcap": 5648, "\u0120envi": 5649, "\u0120envir": 5650, "\u0120environ": 5651, "\u0120environment": 5652, "\u0120directr": 5653, "\u0120directrion": 5654, "\u0120closed": 5655, "\u0120bottom": 5656, "\u0120STP": 5657, "\u0120SV": 5658, "\u0120PSTPn": 5659, "\u0120ODB": 5660, "\u0120ODBLK": 5661, "\u0120NSDn": 5662, "\u0120MPCi": 5663, "\u0120MINIP": 5664, "\u0120Mis": 5665, "\u0120Mismatch": 5666, "\u0120Lo": 5667, "\u0120Loop": 5668, "\u0120Inter": 5669, "\u0120Interact": 5670, "\u0120GO": 5671, "\u0120GOO": 5672, "\u0120FLOOR": 5673, "\u0120FPOD": 5674, "\u0120ENMOS": 5675, "\u0120Em": 5676, "\u0120Emit": 5677, "\u0120Emitter": 5678, "\u0120Effective": 5679, "\u0120EPMOS": 5680, "\u0120DmyVIA": 5681, "\u0120DmyOD": 5682, "\u0120DRCGRID": 5683, "\u0120Dim": 5684, "\u0120Dimension": 5685, "\u0120CMO": 5686, "\u0120Cx": 5687, "\u0120Critical": 5688, "\u0120CNT": 5689, "\u01208600": 5690, "\u01206500": 5691, "\u0120315": 5692, "\u0120295": 5693, "\u012016500": 5694, "\u01201440": 5695, "\u0120144": 5696, "\u012011000": 5697, "\u012013000": 5698, "\u012012000": 5699, "\u0120(>": 5700, "\u0120(<": 5701, "\u012061": 5702, "}*": 5703, "uad": 5704, "rings": 5705, "rant": 5706, "prop": 5707, "oVIA": 5708, "noVIA": 5709, "incell": 5710, "imary": 5711, "gL": 5712, "gH": 5713, "eld": 5714, "edgeM": 5715, "eticle": 5716, "conn": 5717, "cascoded": 5718, "Zone": 5719, "RAL": 5720, "Reticle": 5721, "Quad": 5722, "PAR": 5723, "PART": 5724, "NWEN": 5725, "NIND": 5726, "MetalFuse": 5727, "MS": 5728, "LOWER": 5729, "LEF": 5730, "LEFT": 5731, "HW": 5732, "GLOBALNETI": 5733, "GF": 5734, "ENTRAL": 5735, "ESIDE": 5736, "DONUT": 5737, "Cy": 5738, "Cathode": 5739, "CENTRAL": 5740, "BSH": 5741, "BESIDE": 5742, "AMS": 5743, "93": 5744, "86": 5745, "750": 5746, "7140": 5747, "625": 5748, "562": 5749, "5180": 5750, "316": 5751, "235": 5752, "2170": 5753, "1805": 5754, "15500": 5755, "138": 5756, "0750": 5757, "0535": 5758, "0174": 5759, ")).(": 5760, "))*((": 5761, ")},": 5762, "%~": 5763, "\u0120lead": 5764, "\u0120forbid": 5765, "\u0120TPCi": 5766, "\u0120700": 5767, "free": 5768, "RB": 5769, "PRD": 5770, "PRDL": 5771, "MM": 5772, "FTPM": 5773, "APRDL": 5774, "2960": 5775, "0485": 5776, "00463": 5777, "0024": 5778, "\u0120\u0120\u0120\u0120\u0120\u0120\u0120\u0120\u0120\u0120\u0120\u0120\u0120\u0120": 5779, "\u0120violated": 5780, "\u0120segment": 5781, "\u0120sc": 5782, "\u0120prohi": 5783, "\u0120prohibi": 5784, "\u0120prohibited": 5785, "\u0120import": 5786, "\u0120important": 5787, "\u0120align": 5788, "\u0120[+": 5789, "\u0120[+=": 5790, "\u0120VIAT": 5791, "\u0120VGdpfile": 5792, "\u0120VDdpfile": 5793, "\u0120NPODE": 5794, "\u0120Log": 5795, "\u0120Logic": 5796, "\u0120ERRc": 5797, "\u0120ERRC": 5798, "\u0120Different": 5799, "\u0120BPCi": 5800, "\u0120625": 5801, "\u0120166": 5802, "\u010a\u0120\u0120\u010a\u0120\u0120": 5803, "|><|": 5804, "ground": 5805, "anner": 5806, "VIAyyR": 5807, "VIO": 5808, "VIOLAT": 5809, "VIOLATION": 5810, "SIMP": 5811, "SIMPL": 5812, "SIMPLIF": 5813, "SIMPLIFY": 5814, "SDs": 5815, "RPL": 5816, "RECT": 5817, "RAPH": 5818, "GRAPH": 5819, "Expand": 5820, "Density": 5821, "82": 5822, "325": 5823, "1470": 5824, "141": 5825, "03078": 5826, "0215": 5827, ")})": 5828, "\u0120\u0120\u0120\u0120\u010a\u010a\u010a\u010a\u010a\u0120\u0120": 5829, "\u0120\u0120\u010a\u0120\u0120\u0120\u0120\u0120": 5830, "\u0120wide": 5831, "\u0120pr": 5832, "\u0120primary": 5833, "\u0120nosi": 5834, "\u0120nosie": 5835, "\u0120contr": 5836, "\u0120VX": 5837, "\u0120VXMerged": 5838, "\u0120Poly": 5839, "\u0120NWEN": 5840, "\u0120MT": 5841, "\u0120LON": 5842, "\u0120LONG": 5843, "\u0120Ever": 5844, "\u0120Every": 5845, "\u0120BPMTi": 5846, "\u0120BPVTi": 5847, "\u0120\u010a\u0120\u0120\u0120\u0120\u0120\u0120\u0120\u0120\u0120\u0120\u0120\u0120\u0120\u0120\u0120\u0120\u0120": 5848, "rap": 5849, "raph": 5850, "kage": 5851, "abut": 5852, "95": 5853, "2250": 5854, "2146": 5855, "181": 5856, "1166": 5857, "\u0120was": 5858, "\u0120thro": 5859, "\u0120throug": 5860, "\u0120through": 5861, "\u0120result": 5862, "\u0120prope": 5863, "\u0120produ": 5864, "\u0120potentials": 5865, "\u0120overlapp": 5866, "\u0120overlapped": 5867, "\u0120notch": 5868, "\u0120enable": 5869, "\u0120eute": 5870, "\u0120eutec": 5871, "\u0120eutectic": 5872, "\u0120covers": 5873, "\u0120contrary": 5874, "\u0120could": 5875, "\u0120bas": 5876, "\u0120based": 5877, "\u0120alignment": 5878, "\u0120Viol": 5879, "\u0120Violating": 5880, "\u0120VI": 5881, "\u0120SRDMP": 5882, "\u0120Polyim": 5883, "\u0120Polyimide": 5884, "\u0120PSTPj": 5885, "\u0120PSTPis": 5886, "\u0120PERIMETERY": 5887, "\u0120PERIMETERX": 5888, "\u0120PSTRAP": 5889, "\u0120PNP": 5890, "\u0120NWRiTs": 5891, "\u0120NSDcs": 5892, "\u0120NPN": 5893, "\u0120MUST": 5894, "\u0120MID": 5895, "\u0120LT": 5896, "\u0120DVIAxs": 5897, "\u0120CrtM": 5898, "\u0120Chap": 5899, "\u0120Chapter": 5900, "\u0120te": 5901, "\u0120test": 5902, "}],": 5903, "}.": 5904, "thick": 5905, "thickn": 5906, "thickness": 5907, "dependent": 5908, "WIDE": 5909, "VDMY": 5910, "STA": 5911, "STAG": 5912, "STAGGER": 5913, "Sta": 5914, "RIGHT": 5915, "PSTPj": 5916, "PODEW": 5917, "MTOP": 5918, "LBR": 5919, "Length": 5920, "Expanding": 5921, "CRVDMY": 5922, "9600": 5923, "3445": 5924, "3435": 5925, "2755": 5926, "266": 5927, "2440": 5928, "2765": 5929, "265": 5930, "218": 5931, "0925": 5932, "0915": 5933, "069": 5934, "0625": 5935, "0146": 5936, "0145": 5937, "\u0120\u0120\u0120\u0120\u0120\u0120\u0120\u0120\u0120\u0120\u0120\u0120\u0120\u0120\u0120\u0120\u0120\u0120\u0120\u010a\u0120": 5938, "\u0120\u0120\u0120\u0120\u0120\u0120\u0120\u0120\u010a\u0120\u0120": 5939, "\u0120\u0120\u0120\u0120\u010a\u010a\u010a\u0120": 5940, "\u0120\u0120\u010a\u0120\u0120\u0120\u0120\u0120\u0120\u0120\u0120\u0120\u0120\u0120\u0120\u0120\u0120\u0120\u0120\u0120\u0120\u0120\u0120": 5941, "\u0120\u010a\u0120\u0120\u010a\u0120\u0120": 5942, "\u0120{{{{{{{{": 5943, "\u0120won": 5944, "\u0120want": 5945, "\u0120violations": 5946, "\u0120uni": 5947, "\u0120tapeout": 5948, "\u0120strong": 5949, "\u0120strongly": 5950, "\u0120see": 5951, "\u0120su": 5952, "\u0120sub": 5953, "\u0120rem": 5954, "\u0120remind": 5955, "\u0120reminder": 5956, "\u0120right": 5957, "\u0120posi": 5958, "\u0120position": 5959, "\u0120overw": 5960, "\u0120overwri": 5961, "\u0120overwrited": 5962, "\u0120ones": 5963, "\u0120oct": 5964, "\u0120octangle": 5965, "\u0120might": 5966, "\u0120mes": 5967, "\u0120mesh": 5968, "\u0120kn": 5969, "\u0120know": 5970, "\u0120knows": 5971, "\u0120just": 5972, "\u0120isn": 5973, "\u0120independent": 5974, "\u0120ind": 5975, "\u0120indiv": 5976, "\u0120individ": 5977, "\u0120individual": 5978, "\u0120gated": 5979, "\u0120glo": 5980, "\u0120global": 5981, "\u0120forms": 5982, "\u0120find": 5983, "\u0120fal": 5984, "\u0120false": 5985, "\u0120desig": 5986, "\u0120designer": 5987, "\u0120crossed": 5988, "\u0120conservatively": 5989, "\u0120comb": 5990, "\u0120combin": 5991, "\u0120combined": 5992, "\u0120closest": 5993, "\u0120cy": 5994, "\u0120cyc": 5995, "\u0120cyclic": 5996, "\u0120butted": 5997, "\u0120bu": 5998, "\u0120bul": 5999, "\u0120bulk": 6000, "\u0120bound": 6001, "\u0120bounding": 6002, "\u0120bo": 6003, "\u0120box": 6004, "\u0120bec": 6005, "\u0120beca": 6006, "\u0120because": 6007, "\u0120au": 6008, "\u0120autom": 6009, "\u0120automa": 6010, "\u0120automatical": 6011, "\u0120automatically": 6012, "\u0120apart": 6013, "\u0120[<": 6014, "\u0120You": 6015, "\u0120With": 6016, "\u0120Within": 6017, "\u0120Varactor": 6018, "\u0120VCE": 6019, "\u0120TDVi": 6020, "\u0120SRCSR": 6021, "\u0120SEAL": 6022, "\u0120SEALE": 6023, "\u0120SEALEING": 6024, "\u0120Shape": 6025, "\u0120SM": 6026, "\u0120SMALL": 6027, "\u0120RECTANGLES": 6028, "\u0120PSDu": 6029, "\u0120PERP": 6030, "\u0120PERPEND": 6031, "\u0120PERPENDIC": 6032, "\u0120PERPENDICULAR": 6033, "\u0120Pre": 6034, "\u0120NWs": 6035, "\u0120HBL": 6036, "\u0120HBC": 6037, "\u0120FBE": 6038, "\u0120ESDLU": 6039, "\u0120Cell": 6040, "\u0120CP": 6041, "\u0120CPS": 6042, "\u0120BSHBL": 6043, "\u0120BSHBC": 6044, "\u0120BPMBi": 6045, "\u0120BPVBi": 6046, "\u0120BTSV": 6047, "\u0120BTPM": 6048, "\u0120BMD": 6049, "\u0120=((": 6050, "\u0120900": 6051, "\u012087": 6052, "\u0120860": 6053, "\u0120600000": 6054, "\u012055": 6055, "\u012028": 6056, "\u0120+/-": 6057, "\u0120qu": 6058, "\u010a\u010a\u0120\u0120\u0120\u0120": 6059, "\u010a\u010a\u010a\u010a\u010a\u0120\u0120": 6060, "terconnection": 6061, "spect": 6062, "sides": 6063, "sect": 6064, "recis": 6065, "recision": 6066, "rees": 6067, "precision": 6068, "point": 6069, "ops": 6070, "nterconnection": 6071, "loops": 6072, "licts": 6073, "intersect": 6074, "irection": 6075, "expanding": 6076, "egrees": 6077, "direction": 6078, "degrees": 6079, "conflicts": 6080, "ap": 6081, "Without": 6082, "USA": 6083, "USAGE": 6084, "TNs": 6085, "TACT": 6086, "Stair": 6087, "Sealring": 6088, "SRDODx": 6089, "SRAMn": 6090, "POL": 6091, "POEX": 6092, "Point": 6093, "Passive": 6094, "MPS": 6095, "KA": 6096, "INTETACT": 6097, "INTSIDE": 6098, "Interconnection": 6099, "FMOD": 6100, "FBx": 6101, "EZ": 6102, "DVu": 6103, "DMu": 6104, "DMIM": 6105, "CPODN": 6106, "CKECK": 6107, "Assembly": 6108, "985": 6109, "9680": 6110, "8440": 6111, "85": 6112, "7300": 6113, "6640": 6114, "6500": 6115, "646": 6116, "6420": 6117, "6160": 6118, "620": 6119, "593": 6120, "5670": 6121, "5985": 6122, "550": 6123, "5210": 6124, "4280": 6125, "401": 6126, "429": 6127, "3880": 6128, "386": 6129, "366": 6130, "348": 6131, "3420": 6132, "3120": 6133, "308": 6134, "2965": 6135, "2860": 6136, "2835": 6137, "268": 6138, "2470": 6139, "2460": 6140, "226": 6141, "2090": 6142, "2060": 6143, "2300": 6144, "1980": 6145, "1860": 6146, "1830": 6147, "176": 6148, "1740": 6149, "151": 6150, "1460": 6151, "137": 6152, "1287": 6153, "1135": 6154, "1085": 6155, "0815": 6156, "0735": 6157, "067": 6158, "0555": 6159, "051": 6160, "042": 6161, "0251": 6162, "0129": 6163, "0069": 6164, "0051": 6165, "0044": 6166, "00646": 6167, "0035": 6168, "00176": 6169, "00123": 6170, "00073": 6171, ")}])": 6172, ")]}": 6173, "\u0120\u0120\u0120\u0120\u0120\u0120\u0120\u0120\u0120\u0120\u0120\u0120\u0120\u0120\u0120\u0120\u0120\u0120\u010a\u0120\u0120": 6174, "\u0120\u0120\u0120\u0120\u010a\u0120\u0120\u0120\u0120\u0120\u0120\u0120\u0120\u0120\u0120\u0120\u0120\u0120\u0120\u0120\u0120\u0120\u0120": 6175, "\u0120\u0120\u0120\u0120\u010a\u010a\u0120\u0120": 6176, "\u0120\u0120\u010a\u0120\u0120\u0120\u0120\u0120\u0120\u0120\u0120\u0120\u0120\u0120\u0120\u0120\u0120\u0120\u0120\u0120\u0120\u0120\u0120\u0120\u0120\u0120\u0120\u0120\u0120\u0120\u0120": 6177, "\u0120\u0120\u010a\u0120\u0120\u0120\u0120\u010a\u0120\u0120\u0120": 6178, "\u0120\u010a\u0120\u0120\u010a\u010a\u0120": 6179, "\u0120wai": 6180, "\u0120waiv": 6181, "\u0120waived": 6182, "\u0120varactor": 6183, "\u0120util": 6184, "\u0120utilized": 6185, "\u0120uses": 6186, "\u0120undero": 6187, "\u0120underover": 6188, "\u0120unBAL": 6189, "\u0120thick": 6190, "\u0120toler": 6191, "\u0120tolerant": 6192, "\u0120straps": 6193, "\u0120scri": 6194, "\u0120scribe": 6195, "\u0120sn": 6196, "\u0120snap": 6197, "\u0120snapb": 6198, "\u0120snapba": 6199, "\u0120snapback": 6200, "\u0120recognize": 6201, "\u0120reticle": 6202, "\u0120quad": 6203, "\u0120quadrant": 6204, "\u0120outter": 6205, "\u0120nfin": 6206, "\u0120mess": 6207, "\u0120message": 6208, "\u0120mV": 6209, "\u0120lea": 6210, "\u0120leakage": 6211, "\u0120intera": 6212, "\u0120interacted": 6213, "\u0120flagged": 6214, "\u0120field": 6215, "\u0120fur": 6216, "\u0120further": 6217, "\u0120definitions": 6218, "\u0120cells": 6219, "\u0120cal": 6220, "\u0120calc": 6221, "\u0120calcula": 6222, "\u0120calculated": 6223, "\u0120bypa": 6224, "\u0120bypass": 6225, "\u0120bypassed": 6226, "\u0120bet": 6227, "\u0120better": 6228, "\u0120bad": 6229, "\u0120Vth": 6230, "\u0120Vg": 6231, "\u0120Vgs": 6232, "\u0120Uti": 6233, "\u0120Util": 6234, "\u0120Utiliz": 6235, "\u0120Utilization": 6236, "\u0120TP": 6237, "\u0120SLVIAx": 6238, "\u0120SHDMIM": 6239, "\u0120RI": 6240, "\u0120RISK": 6241, "\u0120Otherw": 6242, "\u0120Otherwise": 6243, "\u0120Ou": 6244, "\u0120Outer": 6245, "\u0120NWRST": 6246, "\u0120NWRSTIR": 6247, "\u0120MPCFINAL": 6248, "\u0120Mask": 6249, "\u0120Internal": 6250, "\u0120Inner": 6251, "\u0120Identical": 6252, "\u0120FMIN": 6253, "\u0120Find": 6254, "\u0120Fi": 6255, "\u0120Field": 6256, "\u0120Connection": 6257, "\u0120Covered": 6258, "\u0120CPODEW": 6259, "\u0120Coun": 6260, "\u0120Counts": 6261, "\u0120Core": 6262, "\u0120CPMOS": 6263, "\u0120CDM": 6264, "\u0120But": 6265, "\u0120APs": 6266, "\u0120APn": 6267, "\u0120ANR": 6268, "\u0120Au": 6269, "\u0120Aux": 6270, "\u0120Auxi": 6271, "\u0120Auxili": 6272, "\u0120Auxiliary": 6273, "\u0120As": 6274, "\u0120@(": 6275, "\u012088": 6276, "\u012077": 6277, "\u0120720": 6278, "\u012072": 6279, "\u0120540": 6280, "\u012051": 6281, "\u0120490": 6282, "\u0120420": 6283, "\u0120314": 6284, "\u0120201": 6285, "\u0120288": 6286, "\u0120262": 6287, "\u012024": 6288, "\u0120237": 6289, "\u01202200": 6290, "\u0120211": 6291, "\u012016000": 6292, "\u01201200": 6293, "\u0120120": 6294, "\u0120(((((": 6295, "\u0120(<=": 6296, "\u0120rep": 6297, "\u0120repla": 6298, "\u0120replace": 6299, "\u0120replacement": 6300, "\u0120;": 6301, "\u010a\u0120\u010a": 6302, "\u010a\u010a\u0120\u0120\u0120\u010a\u0120\u0120": 6303, "urrounding": 6304, "ulti": 6305, "ultiple": 6306, "tmp": 6307, "surrounding": 6308, "sure": 6309, "signal": 6310, "sc": 6311, "scanner": 6312, "multiple": 6313, "most": 6314, "lock": 6315, "interconnection": 6316, "gt": 6317, "gm": 6318, "cess": 6319, "ballated": 6320, "block": 6321, "Your": 6322, "WBDMY": 6323, "WAVE": 6324, "WALL": 6325, "VDS": 6326, "VAROD": 6327, "VCE": 6328, "TERCA": 6329, "TERCAT": 6330, "TDVi": 6331, "SQ": 6332, "SQL": 6333, "Quadrant": 6334, "Quadant": 6335, "NPS": 6336, "MetalFuseLink": 6337, "MDS": 6338, "LOT": 6339, "INTERCAT": 6340, "HBL": 6341, "HBC": 6342, "FMIN": 6343, "FMAX": 6344, "EMOD": 6345, "DNS": 6346, "Draw": 6347, "DSTRAP": 6348, "CPS": 6349, "CPMOS": 6350, "COLLECT": 6351, "CNT": 6352, "BSHBL": 6353, "BSHBC": 6354, "BPOV": 6355, "BPMTi": 6356, "BPMBi": 6357, "BPVTi": 6358, "BPVBi": 6359, "BTSV": 6360, "BTPM": 6361, "BMD": 6362, "Array": 6363, "AA": 6364, "9820": 6365, "879": 6366, "870": 6367, "6860": 6368, "6700": 6369, "514": 6370, "5020": 6371, "3820": 6372, "3520": 6373, "3220": 6374, "338": 6375, "321": 6376, "309": 6377, "3080": 6378, "2920": 6379, "2810": 6380, "2770": 6381, "2220": 6382, "209": 6383, "187": 6384, "1580": 6385, "147": 6386, "1190": 6387, "00255": 6388, "())": 6389, "%.": 6390, "\u0120\u0120\u010a\u010a\u0120\u0120\u0120": 6391, "\u0120whe": 6392, "\u0120wheel": 6393, "\u0120site": 6394, "\u0120ste": 6395, "\u0120step": 6396, "\u0120rings": 6397, "\u0120process": 6398, "\u0120imm": 6399, "\u0120immun": 6400, "\u0120immuni": 6401, "\u0120immunity": 6402, "\u0120iter": 6403, "\u0120iterative": 6404, "\u0120iteratively": 6405, "\u0120graph": 6406, "\u0120gm": 6407, "\u0120Wn": 6408, "\u0120WIRE": 6409, "\u0120Violation": 6410, "\u0120TRIA": 6411, "\u0120TRIAN": 6412, "\u0120TRIANGLE": 6413, "\u0120Si": 6414, "\u0120Odd": 6415, "\u0120MDV": 6416, "\u0120Loops": 6417, "\u0120Cross": 6418, "\u0120Crossed": 6419, "\u012099": 6420, "\u0120({{": 6421, "\u0120\u010a\u0120\u0120\u0120\u0120\u0120\u0120\u0120\u0120\u0120\u0120\u0120\u0120\u0120\u0120\u0120\u0120\u0120\u0120\u0120\u0120\u0120\u0120\u0120\u0120\u0120\u0120": 6422, "\u010a\u0120\u0120\u0120\u0120\u0120\u0120\u0120\u0120\u0120\u0120\u0120\u0120\u0120\u0120\u0120\u0120\u0120\u0120\u0120\u0120\u0120\u0120\u0120\u0120\u0120\u0120\u0120\u0120\u0120\u0120\u0120\u0120\u0120\u0120": 6423, "\u010a\u0120\u010a\u010a\u0120": 6424, "\u010a\u010a\u010a\u0120\u0120\u0120\u0120\u0120": 6425, "right": 6426, "po": 6427, "left": 6428, "extension": 6429, "]}}]": 6430, "VTN": 6431, "TIER": 6432, "TRI": 6433, "936": 6434, "9300": 6435, "8250": 6436, "824": 6437, "7600": 6438, "7570": 6439, "6920": 6440, "3785": 6441, "372": 6442, "304": 6443, "2930": 6444, "1910": 6445, "1480": 6446, "1410": 6447, "0685": 6448, "0675": 6449, "0655": 6450, "0082": 6451, "00408": 6452, "00272": 6453, "\u0120\u0120\u0120\u0120\u0120\u0120\u0120\u0120\u0120\u0120\u0120\u0120\u0120\u0120\u0120\u0120\u0120\u0120\u0120\u0120\u0120\u0120\u0120\u0120\u0120\u0120\u0120\u0120\u0120\u0120\u0120\u0120\u0120": 6454, "\u0120\u0120\u010a\u010a\u0120\u010a\u0120": 6455, "\u0120\u0120\u010a\u0120\u0120\u0120\u0120\u0120\u0120\u0120\u0120\u0120\u0120\u0120\u0120": 6456, "\u0120scanner": 6457, "\u0120ret": 6458, "\u0120retangle": 6459, "\u0120real": 6460, "\u0120rad": 6461, "\u0120propert": 6462, "\u0120production": 6463, "\u0120produc": 6464, "\u0120productivity": 6465, "\u0120maxim": 6466, "\u0120maximize": 6467, "\u0120mass": 6468, "\u0120left": 6469, "\u0120lith": 6470, "\u0120lithog": 6471, "\u0120lithograph": 6472, "\u0120lithography": 6473, "\u0120lim": 6474, "\u0120limi": 6475, "\u0120limited": 6476, "\u0120impli": 6477, "\u0120implies": 6478, "\u0120impl": 6479, "\u0120implant": 6480, "\u0120implantation": 6481, "\u0120highly": 6482, "\u0120grounded": 6483, "\u0120ensure": 6484, "\u0120event": 6485, "\u0120depend": 6486, "\u0120depends": 6487, "\u0120du": 6488, "\u0120during": 6489, "\u0120confined": 6490, "\u0120WBAP": 6491, "\u0120VxM": 6492, "\u0120VxMe": 6493, "\u0120Vdd": 6494, "\u0120TPCFINAL": 6495, "\u0120TAP": 6496, "\u0120SQUARES": 6497, "\u0120SEG": 6498, "\u0120SEGMENT": 6499, "\u0120Sy": 6500, "\u0120Sx": 6501, "\u0120SLOT": 6502, "\u0120MIMEXCL": 6503, "\u0120Low": 6504, "\u0120INFO": 6505, "\u0120Final": 6506, "\u0120Expand": 6507, "\u0120Expands": 6508, "\u0120Er": 6509, "\u0120Connected": 6510, "\u0120BPCFINAL": 6511, "\u0120Bump": 6512, "\u0120APV": 6513, "\u0120Aspect": 6514, "\u012047": 6515, "\u012033000": 6516, "\u012026000": 6517, "\u010a\u0120\u0120\u010a\u010a\u010a\u0120": 6518, "\u010a\u010a\u010a\u010a\u0120\u0120\u0120\u0120\u0120": 6519, "vie": 6520, "proven": 6521, "nclosure": 6522, "grounded": 6523, "centerline": 6524, "bottom": 6525, "adjacent": 6526, "avie": 6527, "`}": 6528, "]})": 6529, "]],": 6530, "]]}": 6531, "Wavie": 6532, "TPCRVDMY": 6533, "SRDMY": 6534, "SHIF": 6535, "SHIFT": 6536, "Sy": 6537, "Sx": 6538, "RTLB": 6539, "POS": 6540, "NOTA": 6541, "NCPO": 6542, "MPCRVDMY": 6543, "LOBA": 6544, "INFO": 6545, "GLOBA": 6546, "EFP": 6547, "Enclosure": 6548, "ANNOTA": 6549, "ADD": 6550, "984": 6551, "759": 6552, "7240": 6553, "6930": 6554, "677": 6555, "6400": 6556, "6370": 6557, "6759": 6558, "6677": 6559, "5840": 6560, "3440": 6561, "3328": 6562, "3185": 6563, "376": 6564, "2995": 6565, "2480": 6566, "1840": 6567, "166": 6568, "161": 6569, "0565": 6570, "04104": 6571, "0372": 6572, "0095": 6573, "00244": 6574, "0009": 6575, "\u0120\u0120\u0120\u0120\u010a\u010a\u010a\u0120\u0120": 6576, "\u0120{{{{{{{{{": 6577, "\u0120{(((": 6578, "\u0120zig": 6579, "\u0120zigz": 6580, "\u0120zigzag": 6581, "\u0120support": 6582, "\u0120secondary": 6583, "\u0120radial": 6584, "\u0120rr": 6585, "\u0120prot": 6586, "\u0120protr": 6587, "\u0120protru": 6588, "\u0120protrusion": 6589, "\u0120partial": 6590, "\u0120partially": 6591, "\u0120pur": 6592, "\u0120purpo": 6593, "\u0120purpose": 6594, "\u0120pl": 6595, "\u0120pimary": 6596, "\u0120options": 6597, "\u0120ob": 6598, "\u0120obt": 6599, "\u0120obtuse": 6600, "\u0120fun": 6601, "\u0120function": 6602, "\u0120aspect": 6603, "\u0120VIAyyR": 6604, "\u0120VIAyR": 6605, "\u0120Rectangle": 6606, "\u0120ON": 6607, "\u0120GN": 6608, "\u0120FL": 6609, "\u0120FLIP": 6610, "\u0120Exten": 6611, "\u0120Extents": 6612, "\u0120ED": 6613, "\u0120Cascoded": 6614, "\u0120BER": 6615, "\u0120Acute": 6616, "\u0120AAIO": 6617, "\u0120ASP": 6618, "\u0120ASPECT": 6619, "\u0120990": 6620, "\u01208400": 6621, "\u01207500": 6622, "\u0120780": 6623, "\u01204500": 6624, "\u01204900": 6625, "\u0120440": 6626, "\u01203400": 6627, "\u0120324": 6628, "\u01203200": 6629, "\u012021": 6630, "\u01201820": 6631, "\u01201560": 6632, "\u01201470": 6633, "\u01201010": 6634, "\u0120140": 6635, "\u0120130": 6636, "\u01201210": 6637, "\u0120110": 6638, "\u0120-(": 6639, "\u0120ro": 6640, "\u0120rout": 6641, "\u0120routing": 6642, "some": 6643, "package": 6644, "nin": 6645, "ninth": 6646, "log": 6647, "logic": 6648, "good": 6649, "edgeAP": 6650, "VxMer": 6651, "VxMerg": 6652, "VAL": 6653, "VALU": 6654, "VALUE": 6655, "TPCFINAL": 6656, "TOUCH": 6657, "SRDCPO": 6658, "POW": 6659, "MPCFINAL": 6660, "Go": 6661, "DIE": 6662, "73": 6663, "7131": 6664, "712": 6665, "7125": 6666, "523": 6667, "521": 6668, "4508": 6669, "361": 6670, "175": 6671, "1327": 6672, "0037": 6673, "0028": 6674, "00135": 6675, "))))": 6676, "(((": 6677, "\u0120\u0120\u0120\u0120\u010a\u010a\u0120\u0120\u0120": 6678, "\u0120\u0120\u010a\u0120\u0120\u0120\u0120\u0120\u0120\u0120\u0120\u0120\u0120\u0120\u0120\u0120\u0120\u0120\u0120\u0120\u0120\u0120\u0120\u0120\u0120\u0120\u0120\u0120": 6679, "\u0120state": 6680, "\u0120slo": 6681, "\u0120slop": 6682, "\u0120pls": 6683, "\u0120put": 6684, "\u0120increment": 6685, "\u0120filter": 6686, "\u0120filters": 6687, "\u0120flip": 6688, "\u0120fan": 6689, "\u0120fanout": 6690, "\u0120exclusion": 6691, "\u0120expo": 6692, "\u0120exposure": 6693, "\u0120circu": 6694, "\u0120circui": 6695, "\u0120circuits": 6696, "\u0120central": 6697, "\u0120ball": 6698, "\u0120allow": 6699, "\u0120acc": 6700, "\u0120accor": 6701, "\u0120accord": 6702, "\u0120according": 6703, "\u0120VIAsx": 6704, "\u0120Tri": 6705, "\u0120PPU": 6706, "\u0120Pssi": 6707, "\u0120Pssive": 6708, "\u0120Pad": 6709, "\u0120OVERL": 6710, "\u0120NACTi": 6711, "\u0120NSTRAP": 6712, "\u0120INSD": 6713, "\u0120INSDIE": 6714, "\u0120GLOBALNET": 6715, "\u0120GLOBALNETI": 6716, "\u0120GLOBALNE": 6717, "\u0120GLOBA": 6718, "\u0120GLO": 6719, "\u0120GL": 6720, "\u0120ECY": 6721, "\u0120ECX": 6722, "\u0120DVIAn": 6723, "\u0120DMu": 6724, "\u0120CoWo": 6725, "\u0120CoWos": 6726, "\u0120CONT": 6727, "\u0120CMOS": 6728, "\u0120Bor": 6729, "\u0120Border": 6730, "\u0120Al": 6731, "\u0120Abut": 6732, "\u0120204": 6733, "\u0120(-": 6734, "\u0120round": 6735, "\u0120`": 6736, "\u0120REAL": 6737, "\u0120660": 6738, "\u010a\u0120\u0120\u0120\u0120\u0120\u0120\u0120\u0120\u0120\u0120\u0120\u0120\u0120\u0120\u0120\u0120\u0120\u0120\u0120\u0120\u0120\u0120\u0120\u0120\u0120\u0120\u0120\u0120\u0120\u0120\u0120\u0120\u0120\u0120\u0120\u0120\u0120\u0120\u0120\u0120\u0120\u0120": 6739, "\u010a\u0120\u0120\u0120\u0120\u010a\u0120\u0120": 6740, "\u010a\u0120\u0120\u010a\u010a\u010a\u010a\u0120": 6741, "\u010a\u010a\u0120\u010a\u010a\u010a\u0120": 6742, "\u010a\u010a\u0120\u010a\u010a\u010a": 6743, "\u010a\u010a\u0120\u010a\u010a": 6744, "\u010a\u010a\u010a\u0120\u0120\u0120": 6745, "}>=": 6746, "xCHK": 6747, "tity": 6748, "tier": 6749, "ratio": 6750, "overlap": 6751, "interconnect": 6752, "checked": 6753, "antity": 6754, "]])": 6755, "WBVIA": 6756, "VTR": 6757, "VTRIG": 6758, "Vo": 6759, "STOR": 6760, "SISTOR": 6761, "SLOT": 6762, "RESISTOR": 6763, "Refer": 6764, "PPS": 6765, "POLYIM": 6766, "POLYIMIDE": 6767, "PH": 6768, "PHAN": 6769, "PHANTOM": 6770, "NSDu": 6771, "NPODE": 6772, "MT": 6773, "BPCFINAL": 6774, "Bridge": 6775, "AAIO": 6776, "969": 6777, "752": 6778, "7150": 6779, "6820": 6780, "6270": 6781, "6300": 6782, "5750": 6783, "5400": 6784, "3390": 6785, "3135": 6786, "206": 6787, "2130": 6788, "213": 6789, "1780": 6790, "1125": 6791, "0935": 6792, "0775": 6793, "0513": 6794, "0235": 6795, "00089": 6796, "0025": 6797, "00192": 6798, ",]": 6799 }